<unk>	0
▁	-3.69811
▁블랙	-4.15849
-	-4.36277
▁팬츠	-4.61323
▁black	-4.71726
:	-4.93013
▁티셔츠	-5.00117
▁레이어드	-5.19389
▁롱	-5.23644
▁그레이	-5.33674
▁우먼즈	-5.3483
▁자켓	-5.40645
▁와이드	-5.41604
▁니트	-5.44612
▁데님	-5.46185
▁롱슬리브	-5.51914
▁크롭	-5.54489
▁원피스	-5.58375
▁코튼	-5.65099
▁pants	-5.65242
▁하객룩	-5.66217
▁가디건	-5.66366
▁스커트	-5.68564
▁s	-5.7756
▁가을	-5.85073
팬츠	-5.87042
▁화이트	-5.87864
▁커브드	-5.8789
▁셔츠	-5.88804
▁반팔	-5.88817
▁헨리넥	-5.91937
▁skirt	-5.9213
▁집업	-5.92978
▁후드	-5.9595
▁여성	-5.97491
▁charcoal	-5.98807
▁long	-5.98897
▁navy	-6.0018
▁라이트	-6.07734
▁에센셜	-6.09007
▁스웨이드	-6.09121
▁zip	-6.10693
블랙	-6.10922
자켓	-6.11385
▁밴딩	-6.11774
▁슬리브	-6.12247
티셔츠	-6.12931
▁jacket	-6.13792
▁재킷	-6.15215
▁브라운	-6.15646
▁오버핏	-6.15671
▁차콜	-6.15685
x	-6.16993
up	-6.17043
▁w	-6.17234
▁여름	-6.18945
원피스	-6.18949
▁sleeve	-6.20565
▁네이비	-6.22542
▁gray	-6.23722
▁긴팔	-6.24654
▁데이트룩	-6.25765
▁blue	-6.27509
▁남성	-6.27613
스커트	-6.28164
▁슬랙스	-6.28953
▁x	-6.30339
▁스트라이프	-6.30341
▁슬림	-6.3081
▁m	-6.31838
▁레더	-6.31853
컬렉션	-6.32192
▁체크	-6.32566
▁클래식	-6.34817
▁grey	-6.35035
▁white	-6.36946
▁출근룩	-6.37039
▁미니	-6.38655
▁숏	-6.40485
▁넥	-6.40548
pick	-6.40747
▁와플	-6.43112
▁빈티지	-6.43126
.	-6.44446
화이트	-6.4479
▁긴소매	-6.45407
셔츠	-6.45587
2	-6.47845
▁t	-6.48249
▁남자	-6.48286
▁플레어	-6.49099
▁데일리	-6.49371
▁brown	-6.49971
▁브이넥	-6.52191
라인	-6.54521
▁tee	-6.5457
5	-6.56187
▁a	-6.56928
▁하이넥	-6.57003
▁베이직	-6.57345
▁부츠컷	-6.57488
▁여자	-6.57523
▁블루	-6.58147
▁스웨트	-6.58519
스니커즈	-6.59144
▁블라우스	-6.59497
▁hoodie	-6.59509
▁나시	-6.60766
▁시티	-6.62091
▁레이스	-6.62127
1	-6.62479
부츠	-6.63054
▁워시드	-6.64386
&	-6.66701
니트	-6.67081
l	-6.67208
▁세미	-6.67615
▁button	-6.70178
▁vintage	-6.70181
▁골지	-6.70269
b	-6.71213
▁로고	-6.71379
▁레저	-6.73017
▁knit	-6.73024
▁washed	-6.73034
▁하프	-6.73081
▁트랙탑	-6.74541
s	-6.74804
▁히든	-6.75929
▁미디	-6.78631
▁denim	-6.78998
▁셔링	-6.80249
▁부츠	-6.81873
▁리브드	-6.82114
추천	-6.82456
ver	-6.83516
티	-6.83663
▁mini	-6.85446
가디건	-6.85886
▁logo	-6.86773
▁후드집업	-6.86983
▁트랙	-6.87147
▁라운드	-6.87303
▁썸머	-6.88518
▁포켓	-6.88675
▁layered	-6.88691
▁울	-6.88914
▁l	-6.88994
▁피그먼트	-6.89382
6	-6.8986
▁더비	-6.90146
▁스니커즈	-6.90155
▁플리츠	-6.90501
▁롱원피스	-6.91127
▁스웻	-6.91716
▁dress	-6.92157
▁핀턱	-6.92673
슈즈	-6.92792
a	-6.93133
m	-6.93795
▁버튼	-6.95308
▁melange	-6.957
▁워싱	-6.95783
▁린넨	-6.95833
▁후디	-6.96738
▁핏	-6.99094
▁wide	-6.9939
▁lace	-6.9939
▁후디드	-6.99483
g	-7.01177
7	-7.01325
▁아디다스	-7.01539
4	-7.01554
▁로퍼	-7.02435
▁카고	-7.02889
t	-7.03049
▁라운드넥	-7.03084
▁간절기	-7.03228
▁khaki	-7.03239
▁워셔블	-7.03259
▁루즈핏	-7.03317
▁캐주얼	-7.03328
▁에어	-7.03635
▁다운	-7.03687
▁데일리룩	-7.03722
스	-7.03954
▁베이지	-7.0401
3	-7.04345
▁in	-7.05009
바지	-7.05022
신발	-7.05469
▁기본	-7.057
▁h	-7.06126
트	-7.06127
▁소프트	-7.07221
▁슬럽	-7.07306
▁다크	-7.08077
▁b	-7.09538
▁로	-7.10407
▁벌룬	-7.10699
▁hood	-7.11301
▁릴렉스드	-7.11443
▁배색	-7.11567
▁미디엄	-7.11583
▁beige	-7.11599
▁플리스	-7.11931
드	-7.13814
c	-7.14476
▁봄	-7.15353
▁cargo	-7.15746
▁저지	-7.1592
▁퍼플	-7.17113
▁티	-7.1759
데님	-7.18016
▁up	-7.18763
w	-7.19085
재킷	-7.19856
▁7부	-7.20017
▁더블	-7.20229
▁컬래버	-7.20713
▁루즈	-7.20736
▁3	-7.20959
▁og	-7.21226
▁스트레이트	-7.21402
▁1	-7.2284
▁shirt	-7.24605
▁stripe	-7.24968
▁맥시	-7.25026
▁뷔스티에	-7.25028
▁cotton	-7.25052
▁pocket	-7.25052
▁floral	-7.25052
▁윈드브레이커	-7.25516
블라우스	-7.26811
shirt	-7.2685
d	-7.27074
▁p	-7.27293
▁슈퍼스타	-7.2787
룩	-7.2828
▁c	-7.29918
▁시어	-7.29998
▁purple	-7.30049
9	-7.30079
▁jeans	-7.30087
▁프리미엄	-7.30192
▁사이드	-7.3026
▁쿨탠다드	-7.30273
▁boots	-7.3028
▁블루종	-7.30487
▁스트랩	-7.30521
▁로우	-7.30566
▁블레이저	-7.30768
리	-7.31093
▁v	-7.32049
슬랙스	-7.32689
▁워크	-7.3305
▁sweat	-7.3495
▁프릴	-7.35196
▁신세틱	-7.35251
▁격식룩	-7.35294
▁나일론	-7.35294
▁ivory	-7.35305
▁트레이닝	-7.35341
▁멜란지	-7.35468
▁원턱	-7.35525
▁플랫폼	-7.35535
▁슬리브리스	-7.35689
운동화	-7.36014
!	-7.36244
▁레드	-7.36325
▁슈즈	-7.36865
▁파이어버드	-7.37226
▁세트	-7.37256
▁드레스	-7.37939
라	-7.38019
▁미니원피스	-7.38596
▁neck	-7.3927
▁점퍼	-7.3952
▁폴로	-7.40251
▁스피드캣	-7.40277
▁플라워	-7.40846
▁베이식	-7.40846
▁스트링	-7.40847
▁인디고	-7.40901
▁hooded	-7.40905
▁카키	-7.41108
▁light	-7.41366
▁자체제작	-7.41388
▁미니멀	-7.41405
▁턱	-7.41672
점퍼	-7.41674
▁쿨	-7.41849
로퍼	-7.42832
0	-7.42911
▁셋업	-7.43014
핏	-7.46012
▁키높이	-7.46524
▁래글런	-7.46689
▁스냅	-7.46689
▁슬림핏	-7.4672
▁머슬핏	-7.46752
▁휴양지룩	-7.46763
▁가을하객룩	-7.46933
▁랩	-7.47002
▁타이	-7.47288
▁low	-7.47316
▁러닝	-7.47866
▁카라	-7.48259
▁치노	-7.48566
p	-7.48971
▁코트	-7.50331
▁포스	-7.50729
▁투	-7.52623
▁사계절	-7.52839
▁딥	-7.52892
▁오헤시오	-7.52939
▁slim	-7.52945
▁tcm	-7.52969
▁graphic	-7.52987
▁shirring	-7.52989
▁fw	-7.53135
▁살안타템	-7.53266
▁07	-7.54031
neck	-7.54678
반팔	-7.54907
▁패딩	-7.54947
▁set	-7.55036
▁실버	-7.55135
▁텐셀	-7.55575
▁푸마	-7.57418
k	-7.58636
▁시스루	-7.58995
▁보트넥	-7.59021
화	-7.59057
▁퍼프	-7.59336
8	-7.59605
▁cardigan	-7.59606
▁deep	-7.59606
▁divein	-7.59606
▁마운틴	-7.59606
▁무민서	-7.59606
▁새틴	-7.59606
▁드레이프	-7.59607
▁32%	-7.59609
▁mlt	-7.59633
▁one	-7.59683
그레이	-7.60019
▁여름원피스	-7.61176
어	-7.61569
▁g	-7.62384
▁레이어드원피스	-7.62735
▁4	-7.63583
▁2	-7.64229
진	-7.64904
▁라인	-7.65492
지	-7.66001
▁5	-7.66165
브	-7.66308
▁쉬폰	-7.66469
▁레글런	-7.66748
▁풀오버	-7.66753
▁경량	-7.66963
▁트라우저	-7.67452
이	-7.67914
e	-7.68091
▁line	-7.68341
▁아이보리	-7.68574
▁뮬	-7.68864
▁쇼츠	-7.68893
▁겨울	-7.7015
▁26fw	-7.70548
f	-7.70891
▁리본	-7.71105
y	-7.72427
▁가죽	-7.72465
▁빅사이즈	-7.73547
▁싱글	-7.74406
▁시그니처	-7.74441
▁henley	-7.74441
▁절개	-7.74441
▁카디건	-7.74441
▁silver	-7.74441
▁patch	-7.74442
▁crop	-7.74443
▁애쉬	-7.74443
▁투웨이	-7.74444
▁스퀘어넥	-7.74444
▁멀티	-7.74447
▁화이트라벨	-7.74453
▁오피스룩	-7.74822
▁가을블라우스	-7.74954
▁젤	-7.75047
▁나시원피스	-7.75143
▁야상	-7.75175
▁수트	-7.75241
구두	-7.75359
롱	-7.75694
01	-7.7588
아우터	-7.76549
나시	-7.76606
001	-7.77278
메탈릭	-7.77529
마	-7.77822
코트	-7.78013
▁무지	-7.79544
ed	-7.80765
나	-7.81099
▁아	-7.81215
인	-7.82237
집업	-7.82626
▁릴렉스	-7.82677
▁헨리	-7.82723
▁jersey	-7.82774
▁leather	-7.82774
▁raglan	-7.82774
▁글램	-7.82774
▁waffle	-7.82774
▁크루	-7.82819
▁1461	-7.8317
▁pink	-7.83177
▁라이트웨이트	-7.83191
▁3홀	-7.83249
▁트렌치	-7.83566
▁top	-7.83622
▁하이	-7.83686
▁더비슈즈	-7.83798
▁컷	-7.83987
▁도트	-7.83993
▁백	-7.84468
u	-7.85761
▁탑	-7.85781
니	-7.8599
▁26	-7.86116
▁데님팬츠	-7.86354
트랙탑	-7.86765
▁리	-7.8777
▁구두	-7.87882
▁나이키	-7.89311
▁민소매	-7.91125
린	-7.9154
▁오버사이즈	-7.91779
▁스탠다드	-7.91782
▁재스퍼	-7.91807
▁홀터	-7.9181
▁삼바	-7.91846
▁indigo	-7.91865
▁컴포트	-7.91865
▁벨티드	-7.91871
▁cp	-7.92002
▁카	-7.92029
▁26ss	-7.92143
▁빅	-7.92207
▁패치	-7.92257
▁벨트	-7.92263
▁버건디	-7.92275
▁오프숄더	-7.92287
▁여리핏	-7.92303
▁소가죽	-7.92456
▁가을바지	-7.926
▁베스트	-7.92713
▁d	-7.92714
넥	-7.9281
▁오버	-7.93039
▁핑크	-7.93254
▁레	-7.93401
r	-7.93536
▁포인트	-7.93699
▁반팔티	-7.94134
▁fit	-7.94242
더	-7.94472
크	-7.94745
▁긴팔티	-7.95181
▁sl	-7.95609
레더	-7.95801
신상	-7.95815
▁반바지	-7.95973
더비	-7.96629
블루	-7.96678
드레스	-7.96839
미니원피스	-7.96902
▁캔버스	-7.99233
반바지	-8.00024
▁옥스포드	-8.00156
▁반스	-8.00766
프	-8.01123
▁flare	-8.01782
▁기모	-8.01865
▁30%	-8.01865
▁blouse	-8.01865
▁bootcut	-8.01865
▁pleated	-8.01865
▁vibram	-8.01865
▁wrap	-8.01865
▁아플리케	-8.01865
▁휴가룩	-8.01865
▁기능성	-8.01865
▁티어드	-8.01865
▁크리스탈	-8.01865
▁유니콘	-8.01868
▁sweatpants	-8.01894
▁샥스	-8.02287
▁스	-8.02305
▁free	-8.02317
▁check	-8.02322
▁첼시부츠	-8.02451
▁ii	-8.02606
▁ls	-8.02606
▁off	-8.02783
▁도쿄	-8.02804
▁new	-8.02819
▁가을가디건	-8.02897
▁pick	-8.03077
▁가을원피스	-8.03848
▁트위드	-8.03863
▁킨	-8.03917
▁온	-8.04578
▁반소매	-8.04819
▁아식스	-8.0548
xt	-8.05972
▁f	-8.06395
▁추가	-8.06461
장	-8.06645
▁컬러	-8.06649
best	-8.07412
▁와이드팬츠	-8.07633
logo	-8.07744
라이트	-8.0777
컬러	-8.07779
바람막이	-8.07807
후드집업	-8.08526
▁세미크롭	-8.08845
j	-8.09259
▁n	-8.09683
추가	-8.09803
▁ki	-8.09967
h	-8.10692
▁카프리	-8.11358
▁독일군	-8.11918
▁트레일	-8.12646
▁캉캉	-8.12695
26	-8.12776
롱슬리브	-8.1279
아이템	-8.12932
▁가젤	-8.1297
▁아디제로	-8.12976
▁유틸리티	-8.12976
▁트윌	-8.12976
▁10주년기획	-8.12976
▁60%	-8.12976
▁asymmetric	-8.12976
▁crystal	-8.12976
▁selvedge	-8.12976
▁vlad	-8.12976
▁다잉	-8.12976
▁당일출고	-8.12976
▁밀리터리	-8.12976
▁오리지널	-8.12976
▁우연	-8.12976
▁glam	-8.12977
▁round	-8.12978
▁half	-8.1298
▁dark	-8.1298
▁포시즌	-8.12984
▁midi	-8.12988
▁미드	-8.13007
▁back	-8.13041
▁오	-8.13052
신상품	-8.13192
▁스쿱	-8.13317
▁스모크	-8.13454
▁캐시미어	-8.13467
xl	-8.13627
▁선택	-8.13913
▁지퍼	-8.14085
▁모	-8.14146
▁여름가디건	-8.14283
치마	-8.14386
▁크림	-8.14474
▁red	-8.14567
▁rise	-8.14689
▁*	-8.15134
▁size	-8.16061
▁하객룩원피스	-8.16156
▁세미와이드	-8.1741
z	-8.17996
피	-8.18484
하객룩	-8.1874
세트	-8.18791
오	-8.19248
로	-8.19261
시	-8.19768
슬리퍼	-8.20063
▁라	-8.20322
셋업	-8.2051
롱원피스	-8.20598
실	-8.20624
▁운동화	-8.23716
▁fl	-8.24083
▁웨스턴	-8.241
▁휴양지	-8.25161
코디	-8.252
▁올	-8.25307
▁레귤러	-8.25404
▁볼륨	-8.25409
사이즈	-8.2542
▁홀스	-8.25448
▁fleece	-8.25476
▁mnlb	-8.25476
▁ofm	-8.25476
▁나폴레옹	-8.25476
▁닥터마틴	-8.25476
▁레터링	-8.25476
▁믹스	-8.25476
▁버뮤다	-8.25476
▁베지터블	-8.25476
▁젠플록스	-8.25476
▁코듀로이	-8.25476
▁키작녀	-8.25476
트렌드	-8.25476
▁strap	-8.25476
▁공용	-8.25476
▁우븐	-8.25476
▁woman	-8.25477
▁래빗	-8.25478
▁sky	-8.25478
▁커플	-8.25478
▁피케	-8.25478
▁draped	-8.25482
▁직잭단독	-8.25482
▁pwc	-8.25482
▁track	-8.25483
▁올데이	-8.25495
▁acg	-8.25502
▁slit	-8.25502
▁2way	-8.25504
▁2기장	-8.25518
▁바캉스룩	-8.25529
▁크루넥	-8.25564
▁조거	-8.256
▁홀터넥	-8.25801
▁short	-8.25888
▁모두의	-8.26006
▁시즌오프	-8.26016
▁원	-8.26018
▁프로	-8.26194
▁아치	-8.26212
09	-8.26406
긴팔티	-8.26531
▁스웻팬츠	-8.26668
▁보메로	-8.26673
후디	-8.26867
▁그래픽	-8.26873
▁신발	-8.2695
▁루	-8.27192
91	-8.2782
▁크록스	-8.27829
▁슬라이드	-8.27976
▁lx	-8.28284
▁cut	-8.28316
i	-8.28624
▁맨투맨	-8.30089
후드티	-8.30258
▁르	-8.30284
100	-8.31755
미	-8.31841
즈	-8.3186
o	-8.32747
패딩	-8.32854
04	-8.3355
르	-8.33619
네이비	-8.33939
코어	-8.34074
아	-8.34245
복	-8.34277
맨투맨	-8.34693
실버	-8.34743
패션	-8.34824
25	-8.34879
로고	-8.35622
러닝화	-8.36038
▁배럴	-8.36322
경량패딩	-8.36513
99	-8.3679
▁해링턴	-8.37127
v	-8.38333
▁포	-8.38389
▁henry	-8.39693
▁슈	-8.39717
▁풀	-8.39748
용	-8.39755
▁address	-8.39762
▁demoor	-8.39762
▁napoleon	-8.39762
▁seoul	-8.39762
▁signature	-8.39762
▁straight	-8.39762
▁unisex	-8.39762
▁utility	-8.39762
▁민주킴	-8.39762
▁벤투스	-8.39762
▁브라이덜샤워	-8.39762
▁셀프웨딩	-8.39762
▁아카이브	-8.39762
▁지금하네	-8.39762
▁훌	-8.39762
최	-8.39762
▁클레어	-8.39762
▁척테일러	-8.39762
▁string	-8.39763
▁6인치	-8.39763
▁자수	-8.39763
▁wool	-8.39763
▁블리치	-8.39763
▁플럼	-8.39763
▁double	-8.39764
▁satin	-8.39764
▁캡소매	-8.39765
▁셀비지	-8.39767
▁장마룩	-8.39768
▁raw	-8.39769
▁로우라이즈	-8.39771
▁레이서	-8.39773
▁그린	-8.39775
▁플레인	-8.39775
▁mnq	-8.39776
▁808	-8.39777
▁여행룩	-8.39779
▁라이크	-8.39783
▁폴라	-8.39786
▁투턱	-8.39789
리뷰	-8.39835
▁다크브라운	-8.39855
토	-8.39921
▁러플	-8.39952
▁라운지	-8.39959
▁마	-8.40268
▁남자신발	-8.40334
▁져지	-8.40339
▁토프	-8.40342
▁집	-8.40353
▁웨이브	-8.40353
▁스터드	-8.40356
▁여리	-8.40386
▁classic	-8.40388
▁긴팔블라우스	-8.40445
▁무브	-8.40539
▁발레	-8.40699
▁엣지	-8.40912
▁나그랑	-8.40988
▁layer	-8.41086
▁헤리티지	-8.41151
▁evo	-8.41161
▁curved	-8.41167
▁나이트인디고	-8.41169
▁어센틱	-8.41196
▁클로그	-8.4176
▁#	-8.41871
▁무	-8.41904
너	-8.4245
▁샌들	-8.42739
웨어	-8.43005
▁re	-8.43061
▁청바지	-8.43119
수	-8.43234
▁basic	-8.43571
▁스타	-8.43672
ck	-8.43709
▁피	-8.43768
▁노	-8.43784
▁r	-8.44015
▁고	-8.44085
41	-8.44848
에	-8.45039
▁se	-8.45333
디	-8.45662
▁유	-8.45688
터	-8.45782
엘	-8.47007
▁25	-8.47555
치	-8.48028
뮬	-8.48604
코튼	-8.49174
비	-8.49213
▁ss	-8.49527
on	-8.49583
▁베	-8.49832
10	-8.50397
차콜	-8.505
루	-8.50691
젠	-8.50756
핀	-8.50875
set	-8.50941
그	-8.50947
가	-8.51342
쇼츠	-8.51364
카라	-8.51441
온	-8.51447
힐	-8.51599
데이	-8.51931
코	-8.52096
ss	-8.53704
▁100	-8.54323
02	-8.54719
부	-8.55035
03	-8.55264
-2	-8.55492
정	-8.55799
▁아디스타	-8.5617
▁필드	-8.56196
▁캐	-8.56242
록	-8.5626
▁럭비	-8.56281
▁jean	-8.56282
▁올리브	-8.56284
▁생지	-8.56324
▁바캉스	-8.56357
츠	-8.5636
▁윈드	-8.56376
▁스포츠	-8.56405
란	-8.56419
픽	-8.56425
▁송이송이	-8.56428
1등	-8.56429
®	-8.56429
×	-8.56429
༞	-8.56429
▁applique	-8.56429
▁college	-8.56429
▁field	-8.56429
▁flower	-8.56429
▁metal	-8.56429
▁pleats	-8.56429
▁ribbon	-8.56429
▁slouchy	-8.56429
▁sneakers	-8.56429
▁sprlg49u05	-8.56429
▁women	-8.56429
▁work	-8.56429
▁레거시	-8.56429
▁모임룩	-8.56429
▁민트	-8.56429
▁배기	-8.56429
▁솔리드	-8.56429
▁언발란스	-8.56429
▁옐로우	-8.56429
▁쫀쫀	-8.56429
▁찰랑	-8.56429
▁팀버랜드	-8.56429
▁파라슈트	-8.56429
▁페가수스	-8.56429
▁플랫	-8.56429
▁홀스하이드	-8.56429
시리즈	-8.56429
▁semi	-8.56429
▁레드윙	-8.56429
▁cream	-8.56429
▁롤업	-8.56429
▁스카이블루	-8.56429
▁vtg	-8.56429
▁엑스트라	-8.56429
▁maxi	-8.56429
▁soft	-8.56429
▁로미타	-8.56429
▁uniform	-8.5643
▁클럽	-8.56431
▁퍼티그	-8.56431
▁keen	-8.56432
▁모달	-8.56432
▁tuck	-8.56433
▁slub	-8.56435
▁실키	-8.56435
드로우핏	-8.56435
▁트리	-8.56436
▁슬릿	-8.56436
▁kq686	-8.56439
▁sftm	-8.5644
▁mint	-8.5644
▁테일러드	-8.56441
▁테니스	-8.56441
▁asi	-8.56445
▁슬립온	-8.5645
▁vern	-8.5647
▁홀스레더	-8.56485
▁gtx	-8.56487
세일	-8.56492
▁lab	-8.56502
▁cn	-8.56609
▁shorts	-8.56623
▁hoody	-8.56679
▁하프코트	-8.56701
▁4홀	-8.56745
▁5cm	-8.5675
▁하프집업	-8.56753
th	-8.56757
▁첼시	-8.56857
▁브이	-8.56921
▁조던	-8.56952
▁mut	-8.57044
▁블렌드	-8.57093
▁슬립	-8.57094
▁주영	-8.57097
▁제니	-8.57113
▁패션플래닛	-8.57139
▁말가죽	-8.57142
▁세미부츠컷	-8.5729
in	-8.57375
n	-8.57424
▁샤	-8.57457
27	-8.57491
▁7	-8.57732
▁팬	-8.57877
▁하객룩블라우스	-8.57906
▁바	-8.57987
▁스티치	-8.58043
▁디	-8.58627
▁트렌치코트	-8.58931
▁디테일	-8.59406
66	-8.59509
▁k	-8.59715
▁u740	-8.59728
▁헬스	-8.60835
탑	-8.61381
45	-8.61895
▁아크테릭스	-8.61896
▁롱스커트	-8.62414
▁패션	-8.62597
▁8	-8.6306
▁j	-8.63876
와이드	-8.64016
▁와이드데님	-8.64223
스트레이트	-8.64635
플리스	-8.64686
▁u	-8.65372
베	-8.65479
▁스웨트팬츠	-8.65555
33	-8.65861
24	-8.66211
키	-8.66537
블	-8.67194
후드	-8.68253
▁진	-8.68306
렌	-8.68512
▁에	-8.69112
브라운	-8.69284
기장	-8.69451
▁mo	-8.69991
부츠컷	-8.70208
워싱	-8.70489
버	-8.70513
유희	-8.70646
사	-8.70706
노	-8.70744
size	-8.70761
검	-8.70819
al	-8.70823
다크	-8.71142
fit	-8.71146
크림화이트	-8.7115
아이보리	-8.71161
basic	-8.71181
반소매	-8.71372
shirts	-8.71675
51	-8.71901
메	-8.72194
core	-8.72227
테	-8.72645
퍼	-8.73369
17	-8.7371
▁플레어드	-8.73743
▁wh	-8.73895
▁어	-8.74738
▁보	-8.74905
업	-8.74947
1위	-8.75395
▁레이	-8.75512
▁반	-8.75957
▁트러커	-8.76143
▁바이커	-8.76156
▁무신사	-8.7627
템	-8.76315
론	-8.76349
▁belt	-8.76386
▁멕시코	-8.76404
▁직잭	-8.76419
▁버클	-8.76428
▁스몰	-8.76428
street	-8.76429
▁44%	-8.76429
▁chrome	-8.76429
▁dying	-8.76429
▁embroidery	-8.76429
▁fishtail	-8.76429
▁heather	-8.76429
▁horse	-8.76429
▁loafer	-8.76429
▁nerdking	-8.76429
▁nylon	-8.76429
▁oatmeal	-8.76429
▁silky	-8.76429
▁suede	-8.76429
▁velvet	-8.76429
▁©	-8.76429
▁국내제작	-8.76429
▁남녀공용	-8.76429
▁너드킹	-8.76429
▁비스코스	-8.76429
▁비즈니스	-8.76429
▁주름	-8.76429
▁크링클	-8.76429
▁토쿠텐	-8.76429
▁프린트	-8.76429
▁피로연	-8.76429
재입고	-8.76429
후브스	-8.76429
▁sheer	-8.76429
▁연말	-8.76429
▁원더화이트	-8.76429
▁아웃도어	-8.76429
▁주미니	-8.76429
▁램스킨	-8.76429
▁링거	-8.76429
▁m65	-8.7643
▁balloon	-8.76431
▁크리즈	-8.76432
▁글로우	-8.76433
▁호카	-8.76433
▁banding	-8.76433
▁4.5cm	-8.76435
▁슈퍼	-8.76436
▁딥브이넥	-8.7644
▁메시	-8.76445
▁스무스	-8.76449
▁페이드	-8.76455
▁올스타	-8.76455
▁uv	-8.76468
▁시티보이	-8.76477
▁2부	-8.76511
made	-8.76513
▁면	-8.76534
▁신세틱레더	-8.76604
단화	-8.76682
▁2e	-8.76741
▁후리스	-8.76776
▁남자구두	-8.76846
col	-8.76875
▁데	-8.77038
▁단	-8.77068
▁호	-8.77194
▁essential	-8.77202
▁청순	-8.77234
▁목토	-8.77236
▁리얼	-8.77255
▁패키지	-8.77256
▁high	-8.77263
▁플립플랍	-8.77269
▁cross	-8.77277
▁parka	-8.77278
▁2.0	-8.7728
▁뉴컬러	-8.77284
▁하트	-8.77318
▁우먼스	-8.7735
200	-8.77383
▁v2	-8.77508
▁뷔스티에원피스	-8.7751
▁바이	-8.7764
▁세	-8.77674
유진	-8.77683
▁가을슬랙스	-8.77833
▁star	-8.77976
▁bb	-8.78014
▁tie	-8.78074
▁맥스	-8.78096
▁베일	-8.78162
▁메이페어	-8.78221
▁샌드	-8.78337
▁매트	-8.78384
▁주문폭주	-8.78429
고	-8.78438
▁아우라커피	-8.78443
▁웨이스트	-8.7846
900	-8.78696
▁tag	-8.78702
▁올드스쿨	-8.78803
▁벌룬핏	-8.78864
▁메리제인	-8.79238
▁걸	-8.79523
▁벡스	-8.79547
▁베이	-8.79547
▁스판	-8.80147
▁lt	-8.80268
▁lf	-8.80373
▁us	-8.80378
▁워커	-8.80459
▁이너	-8.8064
sk	-8.80668
▁z	-8.80756
▁밴딩팬츠	-8.80999
12	-8.81644
▁mr530	-8.81966
▁데이	-8.82133
▁버	-8.82298
19	-8.82504
57	-8.82829
▁66	-8.83227
11	-8.83686
▁ver	-8.85794
602	-8.86414
▁크롭핏	-8.86747
la	-8.87167
▁니	-8.8775
-100	-8.88169
89	-8.88345
102	-8.88673
우	-8.88998
포스	-8.90031
레드	-8.90375
리스	-8.90547
▁아우터	-8.91718
션	-8.91989
일	-8.92022
이드	-8.92195
레	-8.92415
▁o	-8.933
스판	-8.93431
▁정장	-8.93576
스웨이드	-8.93629
반팔티	-8.93835
sleeve	-8.94124
스트라이프	-8.94205
위	-8.94335
청바지	-8.94488
셀	-8.94711
ch	-8.94837
가죽	-8.95231
러닝	-8.95298
36	-8.95317
piece	-8.95366
버전	-8.95556
베이지	-8.9561
▁md	-8.95611
cut	-8.95659
제	-8.95739
서	-8.95762
핀턱	-8.95808
스웨터	-8.95818
체형커버	-8.95822
알리스	-8.9586
보	-8.95966
34	-8.95987
88	-8.96006
립	-8.96041
line	-8.96089
샌들	-8.96106
포인트	-8.96154
트위드	-8.96228
쿨	-8.96231
워커	-8.96291
슬라이드	-8.96301
모	-8.96353
▁스케이트	-8.9636
*	-8.964
소	-8.96562
슬	-8.96842
스타	-8.97305
me	-8.9733
pt	-8.9736
▁9	-8.98947
러	-8.99284
▁퍼	-8.99518
트랙팬츠	-9.001
600	-9.00109
▁스테디	-9.00348
쉬	-9.00602
13	-9.00644
▁등산	-9.0071
15	-9.00731
ne	-9.00807
08	-9.00819
▁골프	-9.00923
옷	-9.01056
▁카모	-9.01094
▁ih	-9.01137
팅	-9.01163
▁우먼	-9.01264
얼	-9.01276
▁11	-9.01298
▁청	-9.01311
저	-9.01324
▁일자	-9.0134
팩	-9.01357
▁하객	-9.01365
▁도브	-9.01377
대	-9.01381
소매	-9.01403
던	-9.01414
릿	-9.01416
영	-9.01416
▁태클	-9.01424
든	-9.01425
▁척	-9.01428
▁아딜레늄	-9.01428
만	-9.01428
▁1183c429	-9.01429
▁alyss	-9.01429
▁buddy	-9.01429
▁chino	-9.01429
▁collar	-9.01429
▁comfort	-9.01429
▁destroyed	-9.01429
▁faux	-9.01429
▁french	-9.01429
▁olive	-9.01429
▁ordinaire	-9.01429
▁piping	-9.01429
▁reversible	-9.01429
▁ribbed	-9.01429
▁typo	-9.01429
▁wkndrs	-9.01429
▁결혼식	-9.01429
▁구동화	-9.01429
▁남여공용	-9.01429
▁논페이드	-9.01429
▁누	-9.01429
▁닥마	-9.01429
▁당일	-9.01429
▁디스트로이드	-9.01429
▁리벳	-9.01429
▁립스탑	-9.01429
▁링클	-9.01429
▁문의폭주	-9.01429
▁바라클라바	-9.01429
▁바부슈	-9.01429
▁벨로시티	-9.01429
▁수피마	-9.01429
▁어글리	-9.01429
▁윙	-9.01429
▁유니섹스	-9.01429
▁유니폼	-9.01429
▁카우하이드	-9.01429
▁카펜터	-9.01429
▁콜레트	-9.01429
▁클락스	-9.01429
▁토앤토	-9.01429
▁포플린	-9.01429
▁프린팅	-9.01429
▁해서영	-9.01429
서밋	-9.01429
완	-9.01429
월	-9.01429
탄산	-9.01429
▁cropped	-9.01429
▁girl	-9.01429
▁stitch	-9.01429
▁warm	-9.01429
▁힙	-9.01429
앤트러사이트	-9.01429
▁derby	-9.01429
▁polo	-9.01429
▁패널	-9.01429
▁2in1	-9.01429
▁muse	-9.01429
▁끈조절	-9.01429
▁박시	-9.01429
▁후기보장	-9.01429
▁클레이힐	-9.01429
▁army	-9.01429
▁code	-9.01429
▁패디드	-9.01429
▁핸드메이드	-9.0143
▁우든	-9.0143
▁아이언	-9.0143
▁슬랍	-9.01431
▁슬릭	-9.01431
▁사틴	-9.01431
▁페이디드	-9.01431
▁colette	-9.01431
▁구스다운	-9.01431
▁케이블	-9.01431
▁blended	-9.01432
▁r25m	-9.01432
▁글리오	-9.01432
▁조그택	-9.01432
▁프렌치	-9.01432
▁스퀘어토	-9.01433
▁사선지퍼	-9.01434
▁-5cm	-9.01434
▁cool	-9.01434
▁발레리나	-9.01434
▁백포켓	-9.01435
▁핀터	-9.01435
▁원단	-9.01435
▁비조	-9.01436
▁카멜	-9.01436
▁레몬	-9.01436
▁nct	-9.01437
▁dot	-9.01437
▁하이라이즈	-9.01438
▁러그	-9.0144
▁브리즈	-9.0144
▁비치	-9.01444
▁헤비	-9.01445
▁기모선택	-9.01445
▁더스티	-9.01446
▁플로우	-9.01447
특가	-9.01449
▁에어클라우드	-9.0145
▁nbpfgf733	-9.0145
bka1	-9.0145
▁웨지	-9.01451
▁9부	-9.01455
▁프리	-9.01459
▁w480	-9.01461
▁boat	-9.01465
▁지프	-9.01465
▁zipper	-9.01466
▁스톤	-9.01468
▁다트	-9.01475
▁테리	-9.01479
▁버니	-9.01484
▁wind	-9.01493
▁리버	-9.01496
▁5부	-9.01521
▁1st	-9.01523
ack	-9.01526
▁반집업	-9.01529
-1130	-9.01539
▁orb	-9.01544
▁히든밴딩	-9.01553
▁모크	-9.01555
▁3부	-9.01562
▁linen	-9.01581
▁아크	-9.01585
▁레귤러핏	-9.01591
▁ld496	-9.01601
▁세미크롭핏	-9.01611
▁라운드토	-9.01623
▁레이스업	-9.01623
▁tx30	-9.01626
▁flared	-9.01655
-6000	-9.01662
▁더블니	-9.01692
▁이	-9.01697
▁500	-9.01714
op	-9.01725
▁4e	-9.01778
▁가을청바지	-9.01809
▁알파	-9.01857
▁longsleeve	-9.01863
▁스트레이트핏	-9.01873
▁striped	-9.01917
▁휴양지원피스	-9.01955
▁제인	-9.01976
▁레이스나시	-9.01978
▁와이드청바지	-9.02015
▁리프트	-9.02017
▁하프넥	-9.02022
▁쉘	-9.02086
▁coat	-9.0214
way	-9.0215
er	-9.02245
▁롱기장	-9.0225
▁레이어	-9.023
35	-9.02322
골프화	-9.02353
▁간절기가디건	-9.02355
1g	-9.02366
▁인기	-9.0238
▁큐	-9.02402
▁초	-9.02421
▁어텀	-9.02456
▁방수	-9.02458
▁오픈	-9.0246
▁하트넥	-9.02478
▁블랭크	-9.0248
▁에샤페	-9.0248
▁펌프스	-9.0248
▁캡내장	-9.02481
▁브루클린	-9.02495
▁고어텍스	-9.02495
▁몬트리올	-9.02495
▁워셔블니트	-9.02499
▁waist	-9.02505
▁워킹	-9.02505
▁부유방커버	-9.02507
▁70s	-9.0252
▁라보	-9.02615
▁ash	-9.02619
▁유니크	-9.02646
▁락	-9.02785
▁cr00	-9.02796
▁기획	-9.02833
▁기	-9.03125
▁or	-9.03358
re	-9.03429
▁메리	-9.03513
▁rl	-9.03777
cm	-9.0387
▁모토	-9.04024
▁나이트로	-9.04042
▁symbol	-9.04053
▁솔트	-9.04078
400	-9.04179
▁오프	-9.04185
▁플레어원피스	-9.04491
▁긴팔가디건	-9.04525
▁3s	-9.047
▁14	-9.04706
▁뉴	-9.05143
▁본	-9.05146
▁코	-9.05432
▁로맨틱무브	-9.05628
이즈	-9.05649
커	-9.05909
▁bl	-9.05926
▁미디스커트	-9.05957
▁후드자켓	-9.06691
31	-9.06723
▁단독컬러	-9.0674
멀	-9.06818
▁26s	-9.06885
▁반팔원피스	-9.07007
▁와이드핏	-9.07197
▁화이트원피스	-9.07268
▁레이어드가디건	-9.07275
▁블	-9.07361
ray	-9.07414
80	-9.07677
21	-9.07796
▁프레	-9.07969
▁반팔티셔츠	-9.08224
스트	-9.08444
▁25s	-9.08866
▁이지	-9.08876
▁사	-9.09081
-6	-9.09182
▁크림화이트	-9.09249
w01	-9.09269
▁힐	-9.09487
49	-9.09515
id	-9.09549
73	-9.09614
67	-9.09623
▁shirts	-9.09893
39	-9.10335
▁le830	-9.10358
▁시	-9.10548
-001	-9.11059
▁fr	-9.11187
434	-9.11714
▁la	-9.11772
▁412	-9.1215
티드	-9.12636
ra	-9.12781
50	-9.12939
07	-9.13333
▁치마	-9.13539
▁슬리퍼	-9.14228
▁크	-9.14435
▁ac	-9.14564
14	-9.15052
▁바람막이	-9.15132
▁코튼팬츠	-9.15158
▁아이	-9.15386
▁바지	-9.15477
다운	-9.15762
▁플	-9.15836
▁br	-9.1642
ag	-9.16921
▁miwhwg	-9.17105
53	-9.17809
60	-9.18108
임	-9.18228
le	-9.18428
▁5in	-9.18517
▁oo	-9.20973
컬러추가	-9.21308
an	-9.21811
▁kd	-9.22685
ex	-9.22928
▁25fw	-9.23066
59	-9.23623
it	-9.2365
xs	-9.23897
울	-9.24775
▁라이	-9.25112
jk	-9.25409
헨리넥	-9.2557
▁핸	-9.25899
▁3기장	-9.25968
72	-9.26136
020	-9.2626
바	-9.26417
와이드팬츠	-9.26419
가을	-9.26422
st	-9.26653
신발추천	-9.26749
zip	-9.26895
클래식	-9.27034
링	-9.2707
og	-9.27077
조	-9.27131
데이트룩	-9.2715
톤	-9.27387
콘	-9.27415
플레어	-9.27448
로우	-9.27631
us	-9.27734
bk	-9.2781
베이직	-9.28023
버튼	-9.28169
아르	-9.28301
▁y	-9.28376
하프	-9.28434
▁지	-9.28443
가능	-9.28468
캐주얼	-9.28511
선	-9.28682
시즌	-9.2876
에어	-9.28881
무	-9.289
블레이저	-9.28948
shoulder	-9.28981
블루종	-9.29004
엔	-9.29083
핑크	-9.29093
크림	-9.29125
rise	-9.29128
리본	-9.29134
해	-9.29141
48	-9.29186
로맨틱무브	-9.2921
q	-9.29214
도	-9.29235
오버	-9.29274
통	-9.29323
#	-9.29406
숏팬츠	-9.29408
벡스	-9.29426
단독	-9.29459
걸	-9.29466
▁21	-9.29493
뉴	-9.29505
도트	-9.2957
bo	-9.29653
▁라이더	-9.29658
유	-9.29684
메리제인	-9.29728
클로그	-9.29801
-1	-9.29827
▁피스	-9.29849
38	-9.30258
by	-9.3043
체	-9.3047
▁pu	-9.30629
반	-9.30663
코튼팬츠	-9.30696
체크셔츠	-9.30981
▁로맨틱	-9.31309
다	-9.31471
drop	-9.31657
▁컨트롤	-9.31956
루즈	-9.31999
oll	-9.3244
11b	-9.325
▁여름긴팔	-9.32609
트렌치코트	-9.32899
▁헤	-9.33088
lx	-9.33166
▁25f	-9.33727
▁22	-9.33748
▁폴	-9.34375
의	-9.34535
▁스탠	-9.34584
▁jogger	-9.3459
▁미들	-9.34605
닝	-9.34632
솔	-9.34644
▁페일	-9.34655
▁면접	-9.34674
▁oversize	-9.34679
type	-9.34682
주	-9.34708
전	-9.34724
올드스쿨	-9.34725
추	-9.34733
녀	-9.34737
셋	-9.34738
딩	-9.34754
▁래	-9.34757
▁마이크로	-9.34759
▁아일렛	-9.3476
▁miwjjg	-9.3476
하체커버	-9.34761
<	-9.34761
적	-9.34762
▁올리브스트라타	-9.34762
▁파스텔	-9.34762
>	-9.34762
▁1183a201	-9.34762
▁20%	-9.34762
▁44~110	-9.34762
▁44~99	-9.34762
▁68%	-9.34762
▁85283	-9.34762
▁armor	-9.34762
▁bermuda	-9.34762
▁birch	-9.34762
▁blouson	-9.34762
▁burgundy	-9.34762
▁cashmere	-9.34762
▁champion	-9.34762
▁contrast	-9.34762
▁corduroy	-9.34762
▁diagonal	-9.34762
▁distressed	-9.34762
▁dusty	-9.34762
▁easy	-9.34762
▁fs261od03x087	-9.34762
▁fs263od03x078	-9.34762
▁graphite	-9.34762
▁gusset	-9.34762
▁halter	-9.34762
▁harrington	-9.34762
▁heart	-9.34762
▁hotfix	-9.34762
▁kv955	-9.34762
▁lvory	-9.34762
▁m1906re	-9.34762
▁mt410	-9.34762
▁nbrjgf710	-9.34762
▁onru	-9.34762
▁patchwork	-9.34762
▁reglan	-9.34762
▁rosette	-9.34762
▁santiago	-9.34762
▁shield	-9.34762
▁standard	-9.34762
▁subtle	-9.34762
▁sugarland	-9.34762
▁tifa04	-9.34762
▁tubular	-9.34762
▁washing	-9.34762
▁windbreaker	-9.34762
▁yellow	-9.34762
▁~2xl	-9.34762
▁건메탈	-9.34762
▁고급	-9.34762
▁고프코어	-9.34762
▁골반패드	-9.34762
▁김보라	-9.34762
▁깅엄	-9.34762
▁깜짝	-9.34762
▁닉켈	-9.34762
▁단가라	-9.34762
▁데미지	-9.34762
▁돌잔치	-9.34762
▁동키	-9.34762
▁랭킹	-9.34762
▁레깅스	-9.34762
▁레오파드	-9.34762
▁레플리카	-9.34762
▁로얄	-9.34762
▁리버시블	-9.34762
▁리조트	-9.34762
▁마켓	-9.34762
▁말라핏	-9.34762
▁매그니파이	-9.34762
▁멜빵	-9.34762
▁모디세이	-9.34762
▁몸매보정	-9.34762
▁무진장	-9.34762
▁미즈노	-9.34762
▁벨벳	-9.34762
▁볼드	-9.34762
▁볼레로	-9.34762
▁비브람	-9.34762
▁사파리	-9.34762
▁산티아고	-9.34762
▁소르베	-9.34762
▁소프트얀	-9.34762
▁솔리버리	-9.34762
▁수소봉제	-9.34762
▁슈펜	-9.34762
▁스코츠	-9.34762
▁스튜디오	-9.34762
▁스트레치	-9.34762
▁스페지알	-9.34762
▁식스핏	-9.34762
▁신학기	-9.34762
▁언바운드	-9.34762
▁언타이틀	-9.34762
▁얼라인플러스	-9.34762
▁에어스트레치	-9.34762
▁엔씨티	-9.34762
▁오간자	-9.34762
▁오피서	-9.34762
▁온볼	-9.34762
▁올드머니	-9.34762
▁워터프루프	-9.34762
▁이도현	-9.34762
▁인시전	-9.34762
▁인템포무드	-9.34762
▁인플루언서	-9.34762
▁제가마	-9.34762
▁제작상품	-9.34762
▁줌	-9.34762
▁진청	-9.34762
▁취향기록15%	-9.34762
▁칼리스트라	-9.34762
▁칼릭스	-9.34762
▁캠퍼스룩	-9.34762
▁컴피쿠시	-9.34762
▁크레스트	-9.34762
▁테이퍼드	-9.34762
▁테크니컬	-9.34762
▁트림	-9.34762
▁패커블	-9.34762
▁페코스	-9.34762
▁풋볼	-9.34762
▁플란넬	-9.34762
▁플루이드	-9.34762
▁피쉬테일	-9.34762
▁핀터레스트	-9.34762
▁하트스퀘어넥	-9.34762
▁한소희	-9.34762
▁핸드볼	-9.34762
▁헤비테리	-9.34762
▁휩코드	-9.34762
▁흑청	-9.34762
감	-9.34762
교	-9.34762
넛	-9.34762
롬	-9.34762
롯	-9.34762
빅볼청키	-9.34762
산리오캐릭터즈	-9.34762
색	-9.34762
샵	-9.34762
아워데이즈	-9.34762
앵클부츠	-9.34762
야세	-9.34762
유니버시티	-9.34762
착용	-9.34762
켄	-9.34762
함	-9.34762
▁muscle	-9.34762
▁바스락	-9.34762
▁붓컷	-9.34762
▁빠른	-9.34762
▁왁스	-9.34762
▁요가	-9.34762
▁척테일러올스타	-9.34762
▁카카오	-9.34762
▁쿼터	-9.34762
▁핏더사이즈	-9.34762
필수	-9.34762
▁suit	-9.34762
▁노미스	-9.34762
▁립브드	-9.34762
▁재팬	-9.34762
원더베이지	-9.34762
준	-9.34762
▁able	-9.34762
▁dearly	-9.34762
▁ld037	-9.34762
▁point	-9.34762
▁print	-9.34762
▁steel	-9.34762
▁레트로	-9.34762
▁adv	-9.34762
▁lemon	-9.34762
▁pullover	-9.34762
▁1203a	-9.34762
▁training	-9.34762
▁머메이드	-9.34762
▁자개	-9.34762
▁테렉스	-9.34762
▁kyale	-9.34763
▁base	-9.34763
▁발렛	-9.34763
▁rds	-9.34763
▁폴더블	-9.34763
▁mesh	-9.34763
▁스트릿	-9.34763
▁피치드	-9.34763
▁핑거홀	-9.34763
▁you	-9.34764
▁모카신	-9.34764
▁1201a	-9.34764
▁1183c102	-9.34764
▁소렐	-9.34765
▁twist	-9.34765
▁허리끈	-9.34765
▁peach	-9.34765
▁헤비웨이트	-9.34765
▁6.5cm	-9.34765
▁color	-9.34765
▁스테디셀러	-9.34765
▁jumper	-9.34765
커버	-9.34765
▁block	-9.34766
▁nbpdgf703	-9.34766
▁재구매1위	-9.34766
▁어라운드	-9.34766
▁icon	-9.34766
▁쉬어	-9.34766
▁블랑	-9.34766
▁액티브	-9.34767
아시아	-9.34767
▁아르테	-9.34767
▁1911	-9.34767
-010	-9.34768
▁나파	-9.34768
▁camo	-9.34768
의류	-9.34768
▁사선	-9.34769
▁puff	-9.3477
▁the	-9.3477
▁라룸	-9.34771
▁y2k	-9.34771
▁플리티드	-9.34771
-2160	-9.34771
▁오정규	-9.34772
▁kw74	-9.34772
▁goat	-9.34773
▁loop	-9.34773
▁기장선택가능	-9.34773
▁매쉬	-9.34774
▁플랩	-9.34774
▁overfit	-9.34774
▁5.5cm	-9.34774
▁트리플	-9.34776
먼트	-9.34777
▁레이븐	-9.34777
군살커버	-9.34777
▁8홀	-9.34778
▁칼라	-9.34778
▁649	-9.34779
▁클리프	-9.34779
▁개강룩	-9.3478
▁3심볼	-9.34782
▁레이어링	-9.34782
▁루벤	-9.34782
▁23fw	-9.34783
콜라보	-9.34783
▁핏업데님	-9.34784
▁핏보장	-9.34784
▁파인	-9.34786
▁텍스처드	-9.34787
▁오버롤	-9.34789
▁fine	-9.3479
▁청키	-9.3479
써머	-9.34793
▁보우	-9.34793
▁퍼스트	-9.34794
▁시티레저	-9.34794
▁op15	-9.34795
▁하이킹화	-9.34795
▁페니로퍼	-9.34803
▁sage	-9.34804
▁홀리	-9.34805
▁본디	-9.34805
▁356827cm	-9.34809
▁sleeveless	-9.3481
▁버터	-9.34812
▁유니	-9.34816
▁크로스	-9.34816
▁파티	-9.34823
▁big	-9.34827
ity	-9.3483
남방	-9.34838
▁모노	-9.34839
▁yy	-9.34843
▁이너나시	-9.34845
▁hem	-9.34848
-2xl	-9.34852
▁4cm	-9.34865
▁세이	-9.34873
▁2col	-9.34877
▁cat	-9.34907
▁데이트	-9.3491
▁if	-9.34911
▁스탠드	-9.34914
▁3일	-9.34921
▁유넥	-9.34933
▁기본템	-9.34933
▁joggers	-9.34934
▁3size	-9.34945
▁usa	-9.34991
▁kr	-9.35004
▁딥블루	-9.35032
▁세미플레어	-9.35035
▁크롭선택	-9.35043
▁가을출근룩	-9.35044
▁mid	-9.35048
no	-9.35078
▁조던1	-9.35133
디드	-9.35144
da	-9.35159
이어	-9.35194
▁타비	-9.35236
▁오버사이즈드	-9.35236
▁간절기아우터	-9.35268
sm	-9.35283
▁874	-9.35316
▁오트	-9.35317
▁필드자켓	-9.35332
▁sweatshirt	-9.35369
▁사계절데님	-9.35379
쪼리	-9.35404
▁온라인	-9.35405
▁lst	-9.35469
87	-9.3548
▁다크그레이	-9.35494
베르	-9.35503
▁250	-9.35515
▁그레이쉬	-9.35571
▁910	-9.35588
기어	-9.35688
▁mi	-9.35747
▁gar	-9.35784
▁골	-9.35813
▁여름하객룩	-9.35819
▁트위치	-9.35877
pg	-9.35882
▁리브	-9.35899
70x	-9.35979
-101	-9.35994
▁rough	-9.36102
▁cha	-9.36129
▁렝스	-9.36164
▁대디	-9.36207
▁골반뽕	-9.36208
▁돌파	-9.36208
▁허리	-9.36209
▁스택	-9.3623
▁side	-9.36235
▁인도어	-9.36239
▁슬링백	-9.36239
▁제브잭	-9.36239
▁왈라비	-9.36239
▁하프캡	-9.36239
▁수제화	-9.3624
▁레인저	-9.36246
▁이탈리아	-9.36253
▁포스트맨	-9.36259
▁green	-9.36271
▁쿨링	-9.3629
▁nj3ls02	-9.36322
▁썸머가디건	-9.36326
▁메쉬	-9.3635
▁신	-9.36352
▁앤	-9.36359
▁패딩자켓	-9.36369
▁blk	-9.36381
▁봄버	-9.36393
▁가을아우터	-9.36409
▁카코트	-9.36453
▁플러스	-9.36458
ven	-9.36541
▁올블랙	-9.3659
▁양	-9.36592
모브	-9.36734
▁남성신발	-9.36777
▁lc825	-9.36781
▁io	-9.36794
▁miwwhg9	-9.36804
▁cd	-9.36814
▁여름블라우스	-9.36816
▁멜란지그레이	-9.3683
▁봄원피스	-9.37031
▁봄자켓	-9.37075
티브	-9.37082
rc	-9.37103
▁miwtjg9	-9.37103
▁카라티	-9.37116
▁매	-9.3719
▁여름바지	-9.37204
▁기본티	-9.37292
▁워크팬츠	-9.3734
▁민소매원피스	-9.37345
▁라운드넥원피스	-9.37358
oz	-9.37367
▁다운자켓	-9.37392
▁남자헨리넥	-9.37425
est	-9.37496
▁가을신상	-9.37603
▁울텐셀	-9.37943
46-1	-9.38071
▁워싱블랙	-9.38117
▁가을데님	-9.3812
▁구	-9.3821
▁lee2	-9.38222
▁트루	-9.3823
▁심	-9.38321
ts	-9.38403
▁퓨어	-9.38409
▁down	-9.38477
▁오션	-9.38488
▁트임	-9.38495
70	-9.38626
▁miwlwg9	-9.38637
▁면바지	-9.38659
▁230	-9.38845
▁miwtmg	-9.38854
▁와이드슬랙스	-9.38926
웨스턴셔츠	-9.38956
▁313	-9.3907
▁6	-9.39084
▁212	-9.39097
▁jq6	-9.39167
▁ex	-9.39187
기장선택	-9.39208
▁워시드블랙	-9.39281
골프웨어	-9.39388
▁2k	-9.39407
▁안	-9.39532
▁101	-9.39622
▁레이어드나시	-9.39694
▁기장선택	-9.39881
ang	-9.3989
▁가을니트	-9.39892
▁미	-9.40079
1차	-9.4037
▁긴팔원피스	-9.4045
▁통	-9.4051
가죽자켓	-9.40568
f1	-9.40808
▁shoulder	-9.40893
▁7부티셔츠	-9.40929
▁소	-9.41128
▁gl	-9.41184
▁슬	-9.41218
슈즈추천	-9.41221
▁by	-9.4125
▁제	-9.41563
▁워싱데님	-9.41635
▁커	-9.41747
▁가을셔츠	-9.41899
▁ld892	-9.4203
▁카고팬츠	-9.42037
▁ld893	-9.42052
카프리팬츠	-9.42346
▁s2	-9.42594
▁op	-9.42621
▁ma	-9.42659
▁립	-9.42724
가디건세트	-9.42821
▁kc931	-9.4286
▁가	-9.42878
▁레이어드티	-9.42883
빅사이즈원피스	-9.42961
▁알리스	-9.43063
경량다운	-9.43074
▁200	-9.43091
▁체형커버	-9.43124
econ	-9.43293
▁co	-9.43517
ing	-9.43966
▁블랙진	-9.44202
▁pin	-9.44261
▁나	-9.44338
▁ro	-9.44406
▁핸드	-9.44474
리엘	-9.44476
▁롱부츠	-9.44819
▁위	-9.44839
▁pt	-9.44914
버튼니트	-9.44992
ick	-9.45127
84	-9.45472
6j	-9.45642
▁24s	-9.45776
▁26f	-9.45824
▁10	-9.45945
▁이즈	-9.46031
▁화이트팬츠	-9.46384
▁가을팬츠	-9.46625
▁bar	-9.47281
▁숏팬츠	-9.47357
ce	-9.47629
▁엘	-9.47802
93	-9.47884
28	-9.47894
위크	-9.48092
76	-9.48454
▁42	-9.48825
이너	-9.48941
▁후드티	-9.48944
3s	-9.49307
▁머슬	-9.49468
▁렌	-9.50397
▁398846-0	-9.50758
▁코어	-9.51282
all	-9.51822
61	-9.51876
509	-9.52182
ir	-9.52313
86	-9.52798
▁sh	-9.53597
▁i	-9.53828
18	-9.53904
737	-9.53982
▁31	-9.54035
▁페	-9.54355
23	-9.5443
98	-9.54438
569	-9.54777
510	-9.55097
201	-9.55337
en	-9.55481
der	-9.5593
▁a2	-9.56305
▁롱팬츠	-9.5677
스트라이프셔츠	-9.56796
3001	-9.56801
ine	-9.56808
366	-9.57232
186	-9.57654
li	-9.57874
54	-9.57936
-3	-9.58022
30	-9.58481
pa	-9.58504
▁신상	-9.58569
875	-9.58729
▁남자정장	-9.58748
black	-9.59007
107	-9.59976
와이드핏	-9.604
gy	-9.61011
▁cs	-9.61514
0qc	-9.62016
스웨이드자켓	-9.62067
78	-9.62088
라이	-9.62649
9-001	-9.62857
71	-9.6291
sw	-9.63098
oo	-9.6355
▁애	-9.63553
▁긴팔티셔츠	-9.6443
▁머슬티	-9.6446
▁miwtjg	-9.65407
▁ir	-9.65903
g5	-9.66174
▁40	-9.66249
091	-9.6675
000	-9.66996
▁ga	-9.67004
타	-9.67046
안	-9.67278
▁남자반팔	-9.67346
▁nbpdgf71	-9.67392
▁si	-9.6751
▁아식스2608	-9.67686
리에	-9.68189
미니	-9.68271
▁비	-9.68624
크롭자켓	-9.68674
패	-9.68877
크롭	-9.69447
▁to	-9.69949
wm	-9.70277
151	-9.7038
▁nb	-9.70864
69	-9.71056
wt	-9.71361
▁sp	-9.71807
긴팔	-9.7202
▁24	-9.7252
503	-9.72806
ud	-9.72807
와이드데님	-9.72884
▁여름팬츠	-9.73461
택	-9.73538
16	-9.73589
▁!	-9.73604
136	-9.7364
▁miwt	-9.73654
▁여름신발	-9.73765
탈	-9.73859
▁001	-9.7387
▁밀	-9.74132
1q	-9.74256
long	-9.74361
841	-9.7437
jacket	-9.74435
밴딩	-9.74622
▁lo	-9.74633
blue	-9.74716
여성	-9.74782
co	-9.74867
▁hq	-9.75092
턱	-9.75265
40	-9.75308
컷	-9.75372
▁킨재스퍼	-9.75487
▁더	-9.75966
68	-9.76112
맨	-9.76202
머	-9.76249
스웨트	-9.76346
긴소매	-9.76404
본	-9.76543
넬	-9.76588
▁하	-9.76643
▁어그	-9.76653
96	-9.76722
fw1차	-9.76741
벨	-9.76743
edge	-9.76749
방	-9.76795
▁im8	-9.77007
문	-9.77051
ny	-9.77051
한	-9.77057
릴	-9.77102
글	-9.77287
▁클	-9.77295
후기	-9.77378
▁bo	-9.77494
카야노	-9.77519
스피드	-9.77519
골지	-9.77545
데일리룩	-9.7782
스퀘어	-9.77835
어센틱	-9.77901
▁js	-9.77946
윈드브레이커	-9.7803
쿠	-9.78126
양	-9.78137
스트랩	-9.78184
직	-9.78235
컬래버	-9.78238
2k	-9.78256
low	-9.78307
자체제작	-9.78413
아이	-9.78463
밀	-9.78493
보트슈즈	-9.78499
데일리룸	-9.785
트렌치	-9.78502
미니멀	-9.78544
하이	-9.78551
에디션	-9.78552
비죠	-9.78639
삭형	-9.78641
스톰	-9.78645
맥스	-9.78732
▁miwlwg	-9.78734
타이	-9.78743
light	-9.78764
디테일	-9.78787
9060	-9.78801
트라우저	-9.78828
수트	-9.78886
여름원피스	-9.78889
down	-9.7897
웨이스트	-9.78977
샤	-9.78979
오프	-9.78983
야상	-9.79026
면바지	-9.79037
symbol	-9.79038
나이트인디고	-9.79054
지퍼	-9.79057
curved	-9.79061
퓨어	-9.79072
evo	-9.79076
베스트	-9.79077
트임	-9.7908
구	-9.7909
나이트로	-9.79105
아우라커피	-9.79109
헤리티지	-9.79125
off	-9.7913
카고팬츠	-9.79144
오션	-9.79144
주문폭주	-9.79148
보메로	-9.79153
qa	-9.79153
솔트	-9.79166
7부티셔츠	-9.79183
도쿄	-9.79183
심	-9.79192
new	-9.79234
스티치	-9.79238
layer	-9.79241
top	-9.79266
▁무지티	-9.79279
모토	-9.79287
ns	-9.7929
기	-9.79301
레이어드원피스	-9.79324
프로	-9.79346
엣지	-9.79347
▁vi	-9.79354
샌드	-9.79356
309	-9.79356
xlg	-9.79395
미디스커트	-9.79453
매트	-9.79469
105	-9.79471
vin	-9.79537
ind	-9.79616
오버핏	-9.79617
팬	-9.79667
스웨트팬츠	-9.79677
▁kq	-9.79699
메이페어	-9.79712
세	-9.7972
red	-9.79884
트루	-9.79891
홀	-9.79917
▁lc267	-9.80061
collection	-9.80088
일드	-9.80121
정장	-9.80198
애	-9.80202
ter	-9.80262
▁de	-9.80313
491	-9.80328
star	-9.80412
r4	-9.805
212	-9.80572
▁gr	-9.8063
44	-9.8064
네	-9.80927
530	-9.81015
so	-9.81248
63	-9.81664
▁ka	-9.81727
ll	-9.8174
▁단독	-9.81911
▁miwwhg	-9.8197
드리	-9.82366
▁cr	-9.82416
▁트레	-9.82824
▁남자여름	-9.82893
레이	-9.83273
▁아디다스삼바	-9.83522
품	-9.83591
▁nbp7gf7	-9.83621
▁pant	-9.83638
▁nj3ls0	-9.8373
203	-9.83928
r7	-9.83947
▁비건	-9.84024
▁coc	-9.841
lt	-9.84256
▁운동	-9.84265
상품	-9.84414
벤	-9.84433
에어포스	-9.84523
파카	-9.84545
셋업수트	-9.8456
▁젤카야노	-9.84563
▁nj2hs0	-9.84571
▁spjlg49w0	-9.84575
▁original	-9.8458
종	-9.84587
▁살안타	-9.84602
▁흰	-9.84647
▁클리어	-9.84651
▁필	-9.84661
▁허	-9.84674
▁꾸안꾸	-9.84675
▁페미닌	-9.84675
▁탄탄	-9.8468
ard	-9.84688
져	-9.8469
▁웨	-9.8469
튼	-9.84698
▁jenn	-9.847
님버스	-9.84702
▁써	-9.84711
즌	-9.84714
롤	-9.84717
럽	-9.84732
▁입문	-9.84733
▁조그	-9.84734
븐	-9.84735
▁페이크	-9.84739
로우프로	-9.8474
▁에브리	-9.8474
형	-9.84741
보정	-9.84744
▁빅토리아	-9.84746
▁캡	-9.84746
강	-9.84751
류	-9.84751
입	-9.84752
천	-9.84752
물	-9.84753
빗	-9.84754
▁액	-9.84754
건	-9.84755
▁band	-9.84756
form	-9.84756
whg49	-9.84759
폭주	-9.8476
판매	-9.84761
클레이	-9.84761
슨	-9.84761
폰	-9.84761
초콜렛	-9.84761
극찬	-9.84762
▁adidas	-9.84762
▁vn0a3	-9.84762
▁구김	-9.84762
▁컨버스	-9.84762
▁180300	-9.84762
▁3g010017j001m	-9.84762
▁alpha	-9.84762
▁ib1881-	-9.84762
▁miwjmg9	-9.84762
▁nfl2	-9.84762
▁sports	-9.84762
▁덕	-9.84762
▁언발	-9.84762
▁역대급	-9.84762
'	-9.84762
-290mm	-9.84762
05dp0	-9.84762
32g6nfs60twt11ab	-9.84762
61-713	-9.84762
6562	-9.84762
rinkle	-9.84762
series	-9.84762
shower	-9.84762
workpants	-9.84762
y003fn401	-9.84762
▁1183c431	-9.84762
▁1203a609-12	-9.84762
▁24spring	-9.84762
▁26spring	-9.84762
▁356821cm3	-9.84762
▁356839cm1	-9.84762
▁356839sm14	-9.84762
▁406329-8	-9.84762
▁408780-0	-9.84762
▁4계절	-9.84762
▁83플래그	-9.84762
▁aligntm	-9.84762
▁alpaca	-9.84762
▁american	-9.84762
▁autumn	-9.84762
▁autumn20%	-9.84762
▁bk7990	-9.84762
▁bolero	-9.84762
▁brush	-9.84762
▁brutal	-9.84762
▁buckle	-9.84762
▁bustier	-9.84762
▁camisole	-9.84762
▁capsule	-9.84762
▁colorstone	-9.84762
▁contour	-9.84762
▁coossh20	-9.84762
▁corset	-9.84762
▁crochet	-9.84762
▁cw2288-	-9.84762
▁danny	-9.84762
▁dd8959-	-9.84762
▁detail	-9.84762
▁echappe	-9.84762
▁embroidered	-9.84762
▁entry	-9.84762
▁fatigue	-9.84762
▁fcg1pt697m	-9.84762
▁fs3fr0	-9.84762
▁fumble	-9.84762
▁greyish	-9.84762
▁halfdome	-9.84762
▁hv8150-0	-9.84762
▁ih1943-	-9.84762
▁jacquard	-9.84762
▁jf0559-56g	-9.84762
▁jf7235-56n	-9.84762
▁jungle	-9.84762
▁kinchi	-9.84762
▁laroom	-9.84762
▁lb378	-9.84762
▁lb381	-9.84762
▁lc263jp06	-9.84762
▁ld0274	-9.84762
▁lettering	-9.84762
▁maichoi	-9.84762
▁marsden	-9.84762
▁misty	-9.84762
▁miwjlg947c	-9.84762
▁miwjlgt0pb	-9.84762
▁miwjtg90qb	-9.84762
▁miwjtg916c	-9.84762
▁miwkag9	-9.84762
▁miwowg	-9.84762
▁miwtjg946j	-9.84762
▁ml2002r	-9.84762
▁ml574ev	-9.84762
▁moleskin	-9.84762
▁multi	-9.84762
▁mystic	-9.84762
▁nbnag318	-9.84762
▁nbpfgs1	-9.84762
▁nbpqgf701	-9.84762
▁nj1ds81j	-9.84762
▁nj1ds81l	-9.84762
▁nj3ns53j	-9.84762
▁nj3ns53k	-9.84762
▁nj3ns60k	-9.84762
▁nj5js54j	-9.84762
▁nulu	-9.84762
▁ooriginal	-9.84762
▁ovate	-9.84762
▁padd	-9.84762
▁panel	-9.84762
▁pinoki	-9.84762
▁pintuck	-9.84762
▁plum	-9.84762
▁r26m777	-9.84762
▁restaurant	-9.84762
▁safari	-9.84762
▁shoes	-9.84762
▁skeleton	-9.84762
▁slingback	-9.84762
▁slouched	-9.84762
▁spckg24g0	-9.84762
▁spckg49w0	-9.84762
▁spkwg49g01	-9.84762
▁spmzg49u0	-9.84762
▁sprlg49u03	-9.84762
▁sq323	-9.84762
▁sr323	-9.84762
▁stretch	-9.84762
▁ta6227a07r	-9.84762
▁technical	-9.84762
▁trck269b	-9.84762
▁trouser	-9.84762
▁tweed	-9.84762
▁u204lmm	-9.84762
▁vn000va6	-9.84762
▁waxed	-9.84762
▁가나디	-9.84762
▁가먼트다잉	-9.84762
▁가성비	-9.84762
▁게랑드솔트	-9.84762
▁고윤정	-9.84762
▁골반볼륨업	-9.84762
▁공항룩	-9.84762
▁기념일룩	-9.84762
▁나이키런닝	-9.84762
▁냉방병	-9.84762
▁뉴탐페레	-9.84762
▁닐튼	-9.84762
▁다프네	-9.84762
▁단독주문시오늘출발	-9.84762
▁데저트	-9.84762
▁돌로미티	-9.84762
▁동남아	-9.84762
▁드럼워싱	-9.84762
▁디자인	-9.84762
▁라이오셀28%	-9.84762
▁러기드	-9.84762
▁럭키	-9.84762
▁로우웨스트	-9.84762
▁루프휠	-9.84762
▁르네아	-9.84762
▁리차드	-9.84762
▁마젠타	-9.84762
▁멘즈	-9.84762
▁모듈러	-9.84762
▁몰스킨	-9.84762
▁무배	-9.84762
▁무스탕	-9.84762
▁미누의코디	-9.84762
▁미드랭스	-9.84762
▁미프젝	-9.84762
▁바로크	-9.84762
▁바야	-9.84762
▁바야밴드	-9.84762
▁발마칸	-9.84762
▁배드민턴	-9.84762
▁백사틴	-9.84762
▁범퍼	-9.84762
▁범퍼트레이너	-9.84762
▁벤틸레이션	-9.84762
▁벨크로	-9.84762
▁블립온	-9.84762
▁비대칭	-9.84762
▁뽀글이	-9.84762
▁사계절용선택	-9.84762
▁세피아	-9.84762
▁소요	-9.84762
▁스노우	-9.84762
▁스카이플로우	-9.84762
▁스케이트보딩	-9.84762
▁스쿼미시	-9.84762
▁스텔레토	-9.84762
▁스톤마스터	-9.84762
▁스프린트	-9.84762
▁슬러쉬	-9.84762
▁신칠라	-9.84762
▁썸홀	-9.84762
▁아크테릭스베타	-9.84762
▁아크테릭스스쿼미시	-9.84762
▁안녕자두야	-9.84762
▁안티필링	-9.84762
▁알파리스폰스	-9.84762
▁앰버	-9.84762
▁어시메트릭	-9.84762
▁어텐션	-9.84762
▁에덴	-9.84762
▁에스프레소	-9.84762
▁엠	-9.84762
▁엠엘비	-9.84762
▁연	-9.84762
▁오리지날	-9.84762
▁오어우드	-9.84762
▁오즈가이아	-9.84762
▁오즈베누즈	-9.84762
▁옥스퍼드	-9.84762
▁옥타그램	-9.84762
▁올레마	-9.84762
▁옴브레	-9.84762
▁유교걸	-9.84762
▁유튜버	-9.84762
▁이중지	-9.84762
▁익스트림	-9.84762
▁인생	-9.84762
▁인슐레이션	-9.84762
▁자이언트핏	-9.84762
▁중청	-9.84762
▁쫀	-9.84762
▁차파랄	-9.84762
▁챠콜	-9.84762
▁체리레드	-9.84762
▁체스트넛	-9.84762
▁체커보드	-9.84762
▁출고	-9.84762
▁캣	-9.84762
▁커스터마이징	-9.84762
▁컴프레션	-9.84762
▁코만도	-9.84762
▁클라우디	-9.84762
▁타우페	-9.84762
▁탱커	-9.84762
▁투톤아치	-9.84762
▁트위스트	-9.84762
▁파이핑	-9.84762
▁판타즈마	-9.84762
▁팔레트	-9.84762
▁팬던트	-9.84762
▁퍼펙트	-9.84762
▁퍼포먼스	-9.84762
▁펀칭	-9.84762
▁펄	-9.84762
▁펌킨	-9.84762
▁포멀룩	-9.84762
▁폴리쉬드	-9.84762
▁푸퍼	-9.84762
▁프리즘	-9.84762
▁프리하이커	-9.84762
▁플로잉	-9.84762
▁하이브리드	-9.84762
▁하이웨스트	-9.84762
▁핫픽스	-9.84762
▁헤이즐	-9.84762
▁휘게	-9.84762
▁휠라	-9.84762
▁흠뻑쇼	-9.84762
▁히어리	-9.84762
김승환	-9.84762
는	-9.84762
득	-9.84762
디비에이트	-9.84762
랄	-9.84762
른	-9.84762
만능	-9.84762
멈	-9.84762
무배당발	-9.84762
문슈	-9.84762
발매	-9.84762
발송	-9.84762
배스트	-9.84762
번	-9.84762
복원력	-9.84762
쁘	-9.84762
사이클	-9.84762
설	-9.84762
소개팅룩	-9.84762
수아레	-9.84762
스토커즈	-9.84762
스트럭	-9.84762
스펜	-9.84762
스피드캣발렛	-9.84762
실루엣	-9.84762
쏘	-9.84762
아카디아	-9.84762
업데이트	-9.84762
외	-9.84762
움	-9.84762
웬즈데이오아시스	-9.84762
웰	-9.84762
위스퍼	-9.84762
윈드점퍼	-9.84762
음	-9.84762
인페르노	-9.84762
잘	-9.84762
잡화	-9.84762
조끼	-9.84762
착장	-9.84762
창	-9.84762
처	-9.84762
츄	-9.84762
칠	-9.84762
캘	-9.84762
캠페인	-9.84762
쿠셔닝	-9.84762
톰보이자켓	-9.84762
틀	-9.84762
펜슬	-9.84762
프로텍션	-9.84762
플래	-9.84762
하드쉘	-9.84762
해피가이정호	-9.84762
혜	-9.84762
환	-9.84762
▁가젯	-9.84762
▁리커버리	-9.84762
▁린넨라이크	-9.84762
▁얇은	-9.84762
미드나잇	-9.84762
아노락	-9.84762
style	-9.84762
▁1203a537-	-9.84762
▁asym	-9.84762
▁cd6404-	-9.84762
▁cts6	-9.84762
▁draw	-9.84762
▁frill	-9.84762
▁jq059	-9.84762
▁m1965	-9.84762
▁magbts	-9.84762
▁messy	-9.84762
▁miwjlg90	-9.84762
▁miwwmg	-9.84762
▁miwyag	-9.84762
▁outer	-9.84762
▁spjpg4t	-9.84762
▁tabi	-9.84762
▁veil	-9.84762
▁vn000eyeb	-9.84762
▁wbe2l	-9.84762
▁wtrd1	-9.84762
▁딥유넥	-9.84762
▁라인스톤	-9.84762
▁루치드	-9.84762
▁린넨12%	-9.84762
▁링클프리	-9.84762
▁스트리트	-9.84762
▁스포츠브라	-9.84762
▁스프린터	-9.84762
▁아디컬러	-9.84762
▁에르네	-9.84762
▁카울넥	-9.84762
▁커프스	-9.84762
▁힙딥	-9.84762
땡	-9.84762
스윙	-9.84762
은	-9.84762
쫄	-9.84762
▁403589-	-9.84762
▁ebal1	-9.84762
▁r24h	-9.84762
▁sp0w	-9.84762
▁sq321	-9.84762
▁vn000d3h	-9.84762
▁상의	-9.84762
▁스미스	-9.84762
▁알로하	-9.84762
▁태슬	-9.84762
▁토이스토리	-9.84762
▁하이드로	-9.84762
결	-9.84762
깔	-9.84762
빈	-9.84762
▁cowl	-9.84762
▁gf2l	-9.84762
▁lv8	-9.84762
▁ugg	-9.84762
▁알루미	-9.84762
▁푸마26081	-9.84762
프리오더	-9.84762
▁극찬후기	-9.84762
▁55~77	-9.84762
▁jq710	-9.84762
▁vtz	-9.84762
▁위트브라운	-9.84762
롱다리핏	-9.84762
▁rmmv	-9.84762
▁모션플렉스	-9.84762
▁스카프	-9.84762
로우프로파일	-9.84762
▁two	-9.84763
▁씬라이트	-9.84763
▁클라이밍	-9.84763
▁henly	-9.84763
▁jp714	-9.84763
▁ke352	-9.84763
▁scarf	-9.84763
▁stud	-9.84763
▁year	-9.84763
▁스파이럴	-9.84763
▁아웃포켓	-9.84763
▁에코로프트	-9.84763
▁예약배송	-9.84763
▁재구매율	-9.84763
▁플로럴	-9.84763
▁후기인증	-9.84763
hwa	-9.84763
▁벤슨	-9.84763
▁biker	-9.84763
▁논슬립	-9.84763
▁슬레이트	-9.84763
▁25~3	-9.84763
▁pattern	-9.84763
▁ih399	-9.84763
▁말차	-9.84763
차단	-9.84763
y281	-9.84763
▁faded	-9.84763
▁knee	-9.84763
▁knotted	-9.84763
▁bomber	-9.84764
▁ld53	-9.84764
▁r26m301	-9.84764
▁ji202	-9.84764
▁2976	-9.84764
▁npd1	-9.84764
▁서비스	-9.84764
▁금강	-9.84764
▁언밸런스	-9.84764
a401	-9.84765
▁230~290mm	-9.84765
▁ji018	-9.84765
▁인플	-9.84765
▁픽셀	-9.84765
다이크	-9.84765
▁매그맥스	-9.84765
▁방한	-9.84765
▁2618641	-9.84765
▁saint	-9.84765
▁헤링턴	-9.84765
▁miwjjg956c	-9.84765
▁uni	-9.84765
▁페인터	-9.84765
-808	-9.84765
▁nbpdgs197	-9.84765
▁패스트	-9.84765
▁356871	-9.84765
▁enter	-9.84765
▁아일렛포켓	-9.84766
▁jr5tsu838	-9.84766
▁보이핏	-9.84766
▁양털	-9.84766
▁vls0	-9.84766
▁breaker	-9.84766
▁바이올렛	-9.84766
▁nbpdgf736	-9.84767
▁bken	-9.84767
▁골반뽕탈부착	-9.84767
▁엔젤	-9.84767
▁우포스	-9.84767
▁마이크로메쉬	-9.84767
▁보울러	-9.84767
▁wds	-9.84767
▁norm	-9.84767
▁oil	-9.84767
▁eto	-9.84768
▁하니스	-9.84768
rwb	-9.84768
▁2ndf2	-9.84768
▁vn000eat	-9.84768
▁커버핏	-9.84768
▁하찌	-9.84768
▁m916	-9.84768
▁ks473	-9.84769
▁nbpdgf724	-9.84769
▁nbpdgf733	-9.84769
▁아크테릭스세륨	-9.84769
▁미친	-9.84769
▁tb1a27	-9.84769
▁서머	-9.8477
▁트임보트넥	-9.8477
▁356727	-9.8477
▁디파인드	-9.8477
▁slate	-9.8477
▁실물	-9.8477
▁overall	-9.8477
▁데릭	-9.8477
▁dev	-9.84771
▁짐웨어	-9.84771
▁노말워싱	-9.84771
▁4286	-9.84771
▁r26m910	-9.84771
▁wont	-9.84771
▁페니	-9.84771
▁miwtjg936j	-9.84771
하임	-9.84771
▁타입	-9.84772
jasper	-9.84772
▁러스크	-9.84772
▁office	-9.84772
▁일반	-9.84772
▁폴라텍	-9.84772
▁스톤카키	-9.84773
▁유광	-9.84773
▁rusk	-9.84773
▁혼다	-9.84773
▁코르셋	-9.84773
▁에이프	-9.84773
kv5	-9.84774
▁7인치	-9.84774
evosl	-9.84774
▁hde	-9.84774
▁심플	-9.84774
▁트레이너	-9.84774
▁8111	-9.84774
mpkin	-9.84774
▁뮤즈	-9.84774
▁올웨이즈	-9.84775
▁테크	-9.84775
▁uto	-9.84775
▁swan	-9.84775
▁nj3ns56o	-9.84776
▁647	-9.84776
▁356721	-9.84776
탠키티	-9.84776
▁킨뉴포트	-9.84776
▁풀집	-9.84777
▁ur3	-9.84778
▁허리스트랩	-9.84778
▁overlayer	-9.84778
▁b7580	-9.84778
▁빅토리아울	-9.84778
▁50s	-9.84778
▁바시티	-9.84778
▁벨라	-9.84778
▁세레니	-9.84779
▁ear	-9.84779
게더	-9.84779
▁웨일	-9.84779
▁컬러웨이	-9.84779
▁브루니	-9.8478
ture	-9.84781
▁miwtcg	-9.84781
▁리들	-9.84781
▁킨유니크	-9.84781
▁크랙	-9.84782
▁헤링	-9.84783
bestitem	-9.84783
▁단품	-9.84784
▁에브리데이	-9.84784
▁dirty	-9.84786
-264	-9.84786
▁런닝화	-9.84786
▁spowg	-9.84786
▁시어쉘	-9.84786
▁360g	-9.84786
▁비보	-9.84786
요트파카	-9.84786
▁나이키조던	-9.84787
▁devon	-9.84787
▁투인원	-9.84787
▁nj3ns56k	-9.84788
클리어스카이	-9.84788
▁매일	-9.84788
▁엘보	-9.84789
▁lote	-9.8479
▁9oz	-9.8479
▁보드슈즈	-9.8479
▁몬테라	-9.8479
▁운동복	-9.8479
▁모카	-9.8479
▁입문용	-9.84791
▁4303	-9.84791
▁커스텀핏	-9.84792
▁matt	-9.84792
친룩	-9.84793
▁러스티	-9.84793
▁nj3ns83k	-9.84793
▁일상룩	-9.84794
▁캠핑룩	-9.84794
▁a2422	-9.84794
▁3.5cm	-9.84795
▁네오	-9.84795
▁folded	-9.84795
▁hq93	-9.84795
▁반하이	-9.84796
▁mod7	-9.84797
▁스트레이트체형	-9.84797
▁1583	-9.84798
▁3단기장	-9.84798
▁duck	-9.84798
▁3ke	-9.84799
넬리아	-9.84799
샌디핑크	-9.84801
▁편한신발	-9.84801
▁24fw	-9.84801
▁스킨	-9.84802
▁u509	-9.84802
▁그리드	-9.84802
41m	-9.84802
▁데콘	-9.84803
▁splag49u04	-9.84803
▁nj4fr54	-9.84804
▁오피스	-9.84804
▁슬라우치드	-9.84805
▁진주	-9.84805
▁run	-9.84807
▁페루	-9.84807
season	-9.84808
▁경린	-9.8481
▁스탠카라	-9.8481
▁타이포	-9.8481
▁소프트터치	-9.8481
▁포켓몬	-9.84811
▁nbp7gf719	-9.84811
▁페이크레더	-9.84811
▁hpmr6	-9.84812
보이	-9.84812
1차딜리버리	-9.84812
0557	-9.84815
2311	-9.84815
▁컷오프	-9.84816
▁hot	-9.84816
▁아이비	-9.84816
▁하프돔	-9.84818
▁히트	-9.84818
▁간트	-9.84818
3차	-9.84819
▁크로	-9.84819
▁실크	-9.8482
▁와인	-9.8482
▁노바	-9.8482
▁플레이드	-9.84821
ricot	-9.84822
▁1941	-9.84823
▁cinch	-9.84824
jennie	-9.84824
▁597	-9.84824
▁flat	-9.84825
▁l454	-9.84829
▁nj3ns83l	-9.84829
items	-9.84829
▁1906	-9.84831
▁real	-9.84831
▁nj3bs	-9.84831
▁브이넥프릴미니원피스	-9.84832
▁mlb	-9.84832
▁베타	-9.84832
▁멕시코66	-9.84833
원숄더	-9.84833
▁스무드	-9.84833
▁블리스	-9.84834
▁ks7	-9.84837
▁탄탄핏	-9.84844
▁파리	-9.84844
▁에테	-9.84844
▁스포츠웨어	-9.84844
▁nbpdgf718	-9.84844
▁trim	-9.84846
6c20	-9.84849
9xx	-9.84849
▁꾸안꾸룩	-9.84849
▁페미닌룩	-9.84849
▁toe	-9.84849
▁spjjg49c	-9.84849
▁샌드브라운	-9.8485
▁love	-9.84852
커피	-9.84853
ance	-9.84855
▁290	-9.84859
▁tri	-9.84859
▁para	-9.8486
▁로우웨이스트	-9.8486
▁킨샌들	-9.84861
워머	-9.84861
▁1880	-9.84861
▁투스트랩	-9.84863
▁hys	-9.84865
▁웜업자켓	-9.84865
▁이즈핏	-9.84865
▁세트상품	-9.84867
울프	-9.84869
▁s01-	-9.8487
▁트리로고	-9.8487
스타일	-9.8487
▁마레	-9.84873
탱크탑	-9.84873
▁마렌	-9.84873
▁아콘	-9.84874
▁체인	-9.84874
▁boe	-9.84876
▁세이지	-9.84876
▁390	-9.84876
▁흰바지	-9.84877
키즈	-9.84878
▁30s	-9.84883
▁bold	-9.84883
▁belted	-9.84885
▁miwjkgt	-9.84886
▁26su	-9.84888
▁다이	-9.84889
▁발레코어	-9.84892
▁2type	-9.84892
▁투톤	-9.84893
▁에어맥스	-9.84895
클리어핑크	-9.849
▁lowrise	-9.849
▁라스트	-9.849
▁퍼니	-9.849
▁하렘팬츠	-9.84901
▁오일	-9.84902
▁하이킹팬츠	-9.84902
▁면접룩	-9.84906
5513	-9.84907
▁살안타가디건	-9.84908
▁에즈	-9.84908
▁이너티	-9.84909
루아	-9.8491
▁미드탑	-9.84913
765	-9.84914
▁마르	-9.84915
▁oversized	-9.84918
▁브리	-9.84918
▁코튼100%	-9.84919
▁셔츠앤	-9.84921
▁투버튼	-9.84922
▁1201a256-0	-9.84925
▁투팩	-9.84925
▁라고	-9.84925
▁데크	-9.84929
▁샤크	-9.84929
▁피로	-9.8493
▁l47	-9.84933
리닝	-9.84933
▁offset	-9.84937
▁세니	-9.8494
▁ky5	-9.8494
▁iv5	-9.84941
▁pat	-9.84942
치프	-9.84942
▁세나	-9.84943
-032	-9.84944
▁베아	-9.84945
▁도브그레이	-9.84948
▁spjlg49w02	-9.84949
▁nj2hs02	-9.84953
▁stone	-9.84954
▁bob	-9.84955
▁이핏	-9.84957
▁v15	-9.84959
max	-9.8496
▁피크	-9.84961
▁하이탑	-9.84961
▁일자슬랙스	-9.84963
편한구두	-9.84965
▁페일드	-9.84974
시스터	-9.84974
▁더블버튼	-9.84975
인기상품	-9.84976
▁kz	-9.84976
#3	-9.84977
▁폴드	-9.84987
▁dcwpt006bl	-9.84988
blueb	-9.84993
▁쿨론	-9.84995
▁베일라	-9.84997
윈드파카	-9.84998
▁루프	-9.85
▁헤드	-9.85002
▁포니	-9.85004
▁3col	-9.85018
ion	-9.85023
▁베스트아이템	-9.85023
▁미들부츠	-9.85025
니아	-9.85027
▁jr	-9.85035
▁워크웨어	-9.85041
싱글라이더	-9.85041
▁치마바지	-9.85043
▁ozsqga38	-9.85049
▁henryneck	-9.85053
4-010	-9.85061
gem	-9.8507
4-001	-9.85079
▁archi	-9.85085
old	-9.8509
▁하프밴딩	-9.85093
▁fly	-9.85095
▁스판데님	-9.85096
man	-9.85098
▁751	-9.85099
▁ma1	-9.85101
812	-9.85103
▁2002	-9.85107
와우	-9.85116
▁pack	-9.8512
▁메리제인슈즈	-9.85121
하의	-9.85122
▁버튼업	-9.85136
▁아치핏	-9.85141
▁생지데님	-9.85155
▁bag	-9.85159
▁560	-9.85184
▁mute	-9.85191
▁스쿱넥	-9.85191
젤1130	-9.85192
▁면티	-9.85201
▁not	-9.85204
무신사스탠다드	-9.85224
at	-9.85226
▁ext	-9.8523
▁워커부츠	-9.8524
▁sd2203b	-9.85241
▁캐리	-9.85242
▁부츠컷청바지	-9.85248
ker	-9.85268
▁35685asx1	-9.8527
▁오브	-9.85271
밸런스	-9.85271
5329	-9.85272
▁올리브가디건	-9.85285
▁jp	-9.85287
▁럭비티	-9.8529
▁np	-9.85309
327	-9.85312
▁스탠다드핏	-9.85326
▁키높이구두	-9.85329
▁501	-9.85337
▁ki3	-9.85341
▁숏슬리브	-9.85357
코팅	-9.85367
▁103	-9.85387
▁가죽로퍼	-9.85388
▁ky	-9.85388
▁모리	-9.85392
▁온리	-9.85393
▁kw	-9.85408
▁ir569	-9.85413
메가	-9.85416
lax	-9.85423
▁숏기장	-9.8543
01j	-9.85435
180	-9.8545
드아	-9.8547
kh	-9.85477
▁빈티지워싱	-9.8551
▁비건레더	-9.85513
원조	-9.85527
880	-9.85538
▁엣지라인	-9.85544
▁탠	-9.85545
팬츠컬렉션	-9.8555
662	-9.85555
▁봄아우터	-9.85561
▁바이커자켓	-9.85593
ium	-9.85595
▁트러커자켓	-9.85602
▁가을옷	-9.85614
▁801	-9.85617
르보	-9.85626
▁카모팬츠	-9.85636
▁vn000e	-9.85639
▁가죽신발	-9.8564
camp	-9.85668
▁빈티지브라운	-9.85674
리안	-9.85687
▁카이	-9.85708
▁sq	-9.85718
▁이너티셔츠	-9.85734
▁레그	-9.85736
벨라미나	-9.85738
g01	-9.85754
▁hf	-9.85775
gf7	-9.8578
▁pet	-9.85786
울트라	-9.85799
▁pf	-9.85802
템포	-9.85811
▁벤트	-9.85813
▁트레이닝슬랙스	-9.8583
▁브레이커	-9.85846
미스트	-9.85865
프리미엄어센틱	-9.85881
▁505	-9.85883
더스트	-9.85904
▁면팬츠	-9.85908
▁키높이신발	-9.85919
0050	-9.85924
러브	-9.85948
mb	-9.85956
▁프릴리	-9.8597
▁메이	-9.85986
▁메	-9.86007
leg	-9.86015
cl20	-9.86036
▁480	-9.8604
26t	-9.8605
맥스와이드	-9.86074
▁1130	-9.86086
▁숄더	-9.86097
▁가죽부츠	-9.86098
▁407	-9.861
▁하객룩1위	-9.86102
▁라인드	-9.86118
199	-9.86121
▁sea	-9.86124
uct	-9.86133
▁홀터넥원피스	-9.86134
러닝화추천	-9.86136
알파인	-9.8614
▁트레이닝바지	-9.86144
삼바제인	-9.86148
-256	-9.86165
▁xxl	-9.86177
ww	-9.86186
day	-9.86193
▁summer	-9.86218
▁여름추가	-9.8625
▁pk	-9.86277
플라이	-9.86302
▁캉캉원피스	-9.86317
▁heel	-9.86326
▁두	-9.86375
등산화	-9.86413
▁태클렛	-9.86419
▁ice	-9.86423
▁핀턱슬랙스	-9.86434
▁sst	-9.86435
▁에어리	-9.86447
▁가을코디	-9.86516
와이드치노팬츠	-9.86522
1210	-9.86526
▁조거팬츠	-9.86641
▁7부티	-9.86652
5r7	-9.86693
n2	-9.86695
▁ba	-9.8673
님버스10.1	-9.86735
▁트랙재킷	-9.86763
스웨이드독일군	-9.86768
ld	-9.86782
▁여름아우터	-9.86836
251	-9.86852
▁over	-9.86887
샤인	-9.86927
551	-9.86989
▁끈나시	-9.86994
▁나이트	-9.87003
▁ji00	-9.87008
▁4061	-9.87029
▁ca	-9.87036
▁경	-9.87052
머슬핏반팔티	-9.8707
▁새	-9.87096
▁웜	-9.87097
▁여행	-9.871
▁멜	-9.87121
프로스트	-9.87128
▁401	-9.87183
▁캄	-9.87184
▁속	-9.87184
▁⭐	-9.87184
▁옵	-9.87184
▁앙	-9.87184
네트	-9.87189
▁중	-9.87232
▁쉬폰원피스	-9.87233
▁173	-9.87254
▁스테디셋업수트	-9.87263
▁브론즈	-9.87267
▁샨티	-9.87278
▁멋랩	-9.8728
▁벡맨	-9.8728
▁촬영	-9.8728
very	-9.8728
▁den	-9.87281
▁패턴	-9.87281
▁튤립	-9.87286
▁세탁	-9.87289
▁코르	-9.8731
▁랩스커트	-9.87313
▁러블리	-9.87313
▁혼	-9.87316
▁브러쉬	-9.87326
▁토바코	-9.87328
▁그런지	-9.87329
▁졸업식	-9.87329
▁여자신발	-9.87332
▁헤르	-9.87342
▁rider	-9.87344
▁페스티벌	-9.87358
▁헬로키티	-9.87358
▁예약판매	-9.8736
▁taupe	-9.87367
▁레인	-9.87369
▁백트임	-9.87381
▁슈퍼마리오	-9.87384
▁상견례룩	-9.87389
▁slacks	-9.8739
▁토탈	-9.87393
▁핸드볼스페지알	-9.87402
▁조그100	-9.87409
▁퍼프원피스	-9.87413
▁2nd	-9.87415
▁qu	-9.87493
▁ops	-9.87499
▁레인부츠	-9.87507
▁터치	-9.87549
▁originals	-9.87582
▁헤어	-9.87584
▁엔트	-9.87588
▁고트	-9.87589
▁니트트랙	-9.87595
▁arc	-9.87621
▁탈부착	-9.87622
:12	-9.87648
▁bla	-9.87665
▁개	-9.87716
▁모어	-9.87734
-201	-9.8774
tm	-9.87769
▁튜	-9.8779
▁로즈	-9.87806
▁740	-9.8781
▁skin	-9.87866
▁빅사이즈팬츠	-9.87912
nting	-9.87922
▁스크	-9.8793
▁듀	-9.87971
5-	-9.87985
▁클라우드	-9.88001
▁con	-9.88043
▁드라이	-9.88047
▁85	-9.88055
▁백리본	-9.8808
민소매미니원피스	-9.88125
▁mor	-9.88136
▁남자데님	-9.88151
▁골지가디건	-9.88163
▁데일리슈즈	-9.88177
▁아디스타컨트롤	-9.88209
▁틸	-9.88277
b75	-9.88293
▁라이트그레이	-9.88366
▁내	-9.88381
▁블루종자켓	-9.88411
3l	-9.88438
▁컨	-9.88459
▁밴딩슬랙스	-9.8848
▁10001-	-9.88486
▁coco	-9.88506
트레일화	-9.88627
▁양가죽	-9.88714
▁spjjg49	-9.88721
스터	-9.88727
3110	-9.8874
127	-9.88743
▁41	-9.88794
▁레더슈즈	-9.88796
로우탑	-9.88803
5c	-9.88836
▁캐주얼룩	-9.8884
our	-9.88849
▁런	-9.88894
▁wo	-9.8893
mon	-9.88934
▁gt	-9.88977
79	-9.88988
051	-9.89015
▁트래킹	-9.89052
▁스웻셔츠	-9.8907
코지	-9.89077
5k	-9.89162
▁롱와이드	-9.89209
▁가엔	-9.89335
▁라이즈	-9.89354
80g	-9.8948
lg	-9.89625
▁my	-9.89656
ys	-9.89678
▁lc267ts	-9.8969
▁35684	-9.89705
슬림핏후드집업	-9.89717
ve	-9.89727
▁숏부츠	-9.89763
▁ks91	-9.89795
▁반팔블라우스	-9.89854
▁라운드넥가디건	-9.89863
▁기본티셔츠	-9.89868
▁is	-9.89945
11c	-9.89964
ri	-9.90001
▁127	-9.90016
-03	-9.90119
r3	-9.90127
▁레더부츠	-9.90146
▁he	-9.90237
▁부츠컷데님	-9.90303
▁여성슈즈	-9.90321
aw2600	-9.90362
c85	-9.90435
▁스웨트셔츠	-9.9067
▁벌룬팬츠	-9.90676
▁미디원피스	-9.90835
177	-9.90908
▁쪼리	-9.90949
▁r4	-9.91027
▁82	-9.91037
폴로롱슬리브	-9.91097
▁캐주얼팬츠	-9.91142
가죽점퍼	-9.91147
▁9060	-9.91151
▁lc	-9.91165
cf	-9.91191
▁도	-9.9121
▁나이키에어포스	-9.91265
▁스톰	-9.91265
▁비죠	-9.91272
▁삭형	-9.91275
▁에디션	-9.91371
▁530	-9.91466
▁보트슈즈	-9.91479
▁데일리룸	-9.91506
▁xlg	-9.91581
박스	-9.91582
투피스	-9.91621
▁vin	-9.91655
▁체	-9.91666
▁직	-9.9171
▁프	-9.91827
▁쿠	-9.91855
920	-9.91862
더비슈즈	-9.91898
포트	-9.91899
▁타	-9.91948
▁lc821	-9.92045
▁e	-9.92063
▁tr	-9.92131
라인원피스	-9.92196
▁miwckg92	-9.92197
36j	-9.92253
-655	-9.92415
▁ud	-9.92464
ul	-9.92479
▁카야노	-9.92483
74	-9.92513
▁hi	-9.92543
▁fa	-9.92607
hai	-9.92723
스판와이드	-9.93093
▁스케이트보드	-9.93123
472	-9.93171
▁js2	-9.93184
fa	-9.93189
▁헨리넥니트	-9.93195
마스	-9.93212
보드화	-9.93232
▁1183800	-9.93294
라이트다운	-9.93428
es	-9.93444
▁edge	-9.93453
ment	-9.93502
ct	-9.93516
여름긴팔셔츠	-9.93596
▁클리	-9.93597
▁70	-9.93623
▁어그클래식	-9.93658
▁spf	-9.9366
▁oz	-9.93716
▁엔	-9.94052
보트넥블라우스	-9.94058
시스루블라우스	-9.94116
독일군스니커즈	-9.94118
▁16	-9.9412
▁sd	-9.94177
g3w	-9.94259
70q	-9.94262
▁356827wm	-9.94408
▁all	-9.94472
902	-9.94497
틱	-9.94642
▁해	-9.9466
▁mm	-9.94787
▁ar	-9.94921
▁jk	-9.95159
ute	-9.95162
▁spt	-9.95209
시안	-9.95219
▁kj07	-9.95262
레이지	-9.95274
▁시즌	-9.9536
ust	-9.95363
재스퍼락	-9.95389
▁iw	-9.95429
▁선	-9.95493
▁크롭가디건	-9.95548
8-	-9.95558
▁여름자켓	-9.95676
wht	-9.95679
▁ru	-9.95787
▁hq2	-9.9582
▁데일리팬츠	-9.95835
▁그	-9.9588
▁가능	-9.95932
▁tea	-9.96016
스웨이드뮬	-9.96068
▁여름티셔츠	-9.96137
플리스집업	-9.96191
▁spwhg49w1	-9.96196
sx5	-9.96206
베어	-9.9625
정장구두	-9.96269
플레어드팬츠	-9.96406
58	-9.96455
am	-9.9648
pp	-9.9661
해링턴자켓	-9.96633
나이키스니커즈	-9.96634
▁레더자켓	-9.96942
▁택	-9.97007
el	-9.97187
301	-9.97352
▁20	-9.97423
▁링	-9.97725
▁컬러추가	-9.9775
▁톤	-9.97815
▁콘	-9.97829
-004	-9.9789
1-001	-9.9809
ol	-9.9848
56c	-9.98561
11u	-9.98606
▁스웨터	-9.98798
▁tnj	-9.98811
▁서	-9.98871
045	-9.98903
bra	-9.98954
▁집업자켓	-9.99018
▁sw	-9.9915
옥스포드셔츠	-9.99274
wc2	-9.99329
ig	-9.99495
▁버전	-9.9958
▁그레이스	-9.99843
▁반스스케이트	-9.99863
inter	-9.99887
베이	-10.0001
827	-10.0002
▁im81	-10.0002
▁piece	-10.0004
10j	-10.0016
eek	-10.0021
404	-10.0028
클래식발레	-10.0036
▁cv	-10.004
▁가을자켓	-10.0051
이블	-10.0056
배럴팬츠	-10.0062
ry	-10.0094
▁가을티셔츠	-10.0118
자가	-10.0121
nta	-10.014
▁셔츠원피스	-10.0144
478	-10.015
▁nbn	-10.0161
450	-10.0169
90	-10.0221
ie	-10.0221
37	-10.0223
1908	-10.0239
폴로니트	-10.0248
▁miwtjg91	-10.0251
▁캔버스화	-10.0257
▁드	-10.0284
ess	-10.0305
▁검	-10.0311
베리	-10.0322
▁플레	-10.0354
▁트래	-10.0356
ift	-10.0372
▁dcwpt00	-10.0374
▁유희	-10.0375
sp	-10.0383
ga	-10.0384
▁아디다스슈퍼스타	-10.0384
5f	-10.0403
하프슬랙스	-10.0423
로리아	-10.0431
▁팔	-10.0462
▁pur	-10.0467
▁기장	-10.0475
랩	-10.0486
816	-10.051
fw2차	-10.0516
t1	-10.0524
▁아식스26082	-10.0525
▁플리	-10.0543
스웨이드레더	-10.0584
0c	-10.0592
와이드스트레이트	-10.0601
▁tom	-10.0667
오이	-10.0676
▁sor	-10.0681
004	-10.0689
기본가디건	-10.0723
1086	-10.0725
▁브랜	-10.073
▁일	-10.0734
피스	-10.075
▁mar	-10.0768
드리프	-10.0777
1p	-10.0781
▁플레어핏	-10.079
▁루이	-10.081
u09	-10.0812
▁47	-10.0854
015	-10.0879
8-01	-10.0882
▁kd1	-10.0898
젤카야노14	-10.0919
▁ajqsm0	-10.0942
te	-10.0942
▁경량패딩	-10.0945
▁3-	-10.0994
커브드진	-10.101
▁여름반팔	-10.1069
▁글	-10.1171
300g	-10.1176
헨리넥롱슬리브	-10.1191
▁실	-10.1193
스니커즈추천	-10.1207
06	-10.1209
101	-10.1224
▁nbpdgs1	-10.1243
141	-10.1252
mg92qa	-10.129
라운드가디건	-10.133
▁a20	-10.1361
스키	-10.1365
ame	-10.1371
워크자켓	-10.1415
ro	-10.143
20	-10.1455
0811	-10.1491
lc	-10.151
qb	-10.1519
tone	-10.1561
kb	-10.1594
▁ld891	-10.1606
피어	-10.1606
▁여자긴팔	-10.1653
렛	-10.1738
jg926j	-10.1757
▁애니	-10.1769
io	-10.177
air	-10.1776
키어	-10.1801
ia	-10.1868
▁om	-10.1897
inch	-10.1898
nt	-10.1939
30a	-10.1951
플리츠스커트	-10.2018
롱치마	-10.2128
▁ki6	-10.2136
▁008	-10.2139
esc	-10.216
90qc	-10.2214
h2	-10.2224
wm2	-10.2292
▁403	-10.2303
▁en	-10.2316
120	-10.2328
▁푸마스피드캣	-10.2376
▁li	-10.2377
▁무지반팔	-10.2448
▁터	-10.2456
-120	-10.2457
▁44-	-10.25
033	-10.2518
ire	-10.2529
크롭체크셔츠	-10.2536
1-0	-10.2546
▁오버핏반팔	-10.255
미니부츠	-10.2563
-020	-10.258
0001	-10.2634
슬리브리스	-10.2644
ord	-10.2678
롱코트	-10.2707
ina	-10.2727
이브	-10.275
▁겨울신발	-10.2844
▁비올	-10.2866
6b	-10.2972
▁miwtmg9	-10.2974
▁pi	-10.2989
긴팔셔츠	-10.2996
a26	-10.3051
▁miwtjg92	-10.3142
리나	-10.3186
▁러	-10.3226
▁여자긴팔티	-10.3261
iv	-10.3263
스피드캣고	-10.332
gm	-10.3321
mt	-10.3355
▁408	-10.3401
05	-10.3412
818	-10.3433
▁메탈릭	-10.3522
▁에스	-10.3529
92qa	-10.354
▁nbpdgs	-10.3562
▁페이	-10.3565
▁398846-	-10.3581
tl	-10.362
클래식트랙탑	-10.3642
42	-10.3661
▁es	-10.3673
▁so	-10.3691
063	-10.3693
00gb	-10.3698
플	-10.3704
에이	-10.3707
▁아디다스체크	-10.3708
셔링팬츠	-10.3722
▁오버핏반팔티	-10.3776
미니스커트	-10.3805
9j	-10.3865
정장바지	-10.3883
2-100	-10.3898
▁ajqsm	-10.3981
62	-10.4009
▁아식스젤카야노	-10.4025
ac	-10.4036
▁44	-10.4037
래커	-10.4043
선택	-10.4132
953	-10.4197
6900	-10.4212
스티	-10.4242
6c	-10.4257
3a	-10.4299
▁파이어버드클래식트랙	-10.4321
유즈	-10.4322
체크트랙탑	-10.4338
mie	-10.4384
▁l41	-10.4442
핏팬츠	-10.4482
7b	-10.4495
▁le83	-10.4521
발레	-10.4541
팔	-10.4616
97	-10.4646
026	-10.4659
939	-10.4684
드라이	-10.4688
▁bump	-10.4695
▁dcwpt0	-10.4715
32	-10.4731
레이어드	-10.4735
리아	-10.4735
qua	-10.4772
백	-10.4839
82	-10.4857
606	-10.4871
un	-10.4877
▁키	-10.4895
▁01	-10.4929
▁폴로긴팔	-10.4987
▁남자반팔티	-10.4988
9080	-10.4994
005	-10.5001
▁mr530c	-10.5057
▁sli	-10.5073
et	-10.5084
050	-10.5129
75	-10.5132
lie	-10.516
▁tu	-10.5162
rel	-10.5167
369	-10.5212
073	-10.5227
가드	-10.5258
310	-10.5326
895	-10.5336
qg	-10.5338
ton	-10.5419
▁여자후드	-10.5441
▁피그먼트반팔	-10.5484
니트가디건	-10.5516
락	-10.5543
우먼즈	-10.5585
▁pis	-10.559
0j	-10.5609
430	-10.5637
pants	-10.5645
오버핏팬츠	-10.5721
▁u740w	-10.5866
스테이	-10.5875
▁남자후드	-10.588
▁케	-10.59
▁크록스클래식	-10.5921
lf	-10.5926
▁로고후드	-10.6016
256	-10.6026
▁26fa	-10.6036
fl	-10.6045
▁남자더비	-10.6062
har	-10.6119
스케이트로퍼	-10.6124
▁spwhg49w	-10.6149
▁356827	-10.615
275	-10.6156
111	-10.6168
하	-10.6168
ay	-10.6169
반팔니트	-10.6171
크롭셔츠	-10.6187
0774	-10.6213
▁루시	-10.6239
▁kj	-10.6246
r5	-10.6248
ze	-10.6293
스틱	-10.63
rtl	-10.6315
ub	-10.6324
wm45	-10.635
tg3	-10.6379
▁남성정장	-10.6397
rt	-10.64
k5	-10.643
tr	-10.645
▁kc93	-10.6468
레인	-10.6479
파	-10.6498
sc	-10.6508
fo	-10.6512
▁ks	-10.6561
▁11838	-10.6562
끈	-10.6567
▁오버핏후드	-10.6575
ock	-10.66
데님스커트	-10.6604
bl	-10.6618
▁푸마태클	-10.6647
2g	-10.6708
여름	-10.6713
nts	-10.6755
에센셜	-10.6761
▁miwckg9	-10.6782
52	-10.6788
a41	-10.68
hi	-10.682
-01	-10.6847
ape	-10.6866
1-	-10.6871
출근룩	-10.688
킹화	-10.6893
nd	-10.6902
박	-10.6908
▁261	-10.6924
318	-10.6926
체크	-10.6935
케	-10.6957
grey	-10.6974
▁we	-10.6985
▁no	-10.7041
208	-10.7045
▁남	-10.7055
▁트	-10.7071
brown	-10.7074
nk	-10.7091
oun	-10.7144
페	-10.7159
▁kc	-10.7163
tag	-10.7167
무드	-10.717
▁아디다스러닝	-10.7173
▁블랙원피스	-10.718
ke	-10.7184
▁남자긴팔	-10.72
에어포스1	-10.7204
와플	-10.7215
▁빅사이즈하객	-10.7217
aw26	-10.722
160	-10.7238
▁하프트렌치	-10.7242
▁나그랑티	-10.7243
독일군	-10.7247
레이스	-10.7259
▁세미오버	-10.7268
tive	-10.7287
dry	-10.7291
스니	-10.7292
▁ks9	-10.7305
▁3568	-10.7375
셔링	-10.7376
▁im	-10.7397
미디	-10.7401
str	-10.7421
라운드넥	-10.7422
om	-10.7426
매	-10.7438
엔드	-10.7444
▁파	-10.7455
런	-10.7462
cord	-10.7466
포	-10.7467
▁그래픽티	-10.7468
084	-10.747
나시미니원피스	-10.747
라이즈	-10.7476
원	-10.7488
beige	-10.7494
1u	-10.7494
기본	-10.7502
nja	-10.7503
숄	-10.7503
▁spjjg	-10.751
워셔블	-10.7513
lin	-10.7514
간절기	-10.7515
스웻	-10.7523
린넨	-10.754
.0	-10.7546
미디엄	-10.755
카	-10.7557
550	-10.7563
롱자켓	-10.7566
프리미엄	-10.7576
210	-10.7576
boots	-10.7579
뷔스티에	-10.7579
슬럽	-10.759
산	-10.7595
쿨탠다드	-10.7597
내	-10.7598
파이어버드	-10.7601
wg4t	-10.7603
배색	-10.7606
멜란지	-10.7611
트레이닝	-10.7615
~	-10.7618
뮤	-10.7619
경량	-10.7628
틸	-10.7628
퍼플	-10.7628
워크	-10.7635
ma	-10.7637
보트넥	-10.7644
플랫폼	-10.7644
ka	-10.7645
저지	-10.7649
사이드	-10.7653
머슬핏	-10.7662
빅사이즈	-10.7665
봄	-10.7668
카키	-10.767
ju	-10.7676
살안타템	-10.7677
클라우드	-10.768
플레이	-10.7686
rl	-10.7687
원턱	-10.7687
젤	-10.7688
시스루	-10.7688
▁miwtmg90	-10.769
기획	-10.7695
클리	-10.7697
듀	-10.7698
삭	-10.7701
슬림핏	-10.7703
언	-10.7719
튜	-10.7721
푸마	-10.7722
아웃	-10.7724
짐	-10.773
예	-10.773
살	-10.7733
26fw	-10.7734
오피스룩	-10.7736
라이트웨이트	-10.7738
카프리	-10.7741
옥스포드	-10.7744
skin	-10.7752
개	-10.7755
킨	-10.7755
무브	-10.7758
-65	-10.7759
1461	-10.7761
크리스	-10.7762
23f	-10.7765
pink	-10.7765
라이더	-10.777
오프숄더	-10.7776
탈부착	-10.7778
126	-10.7783
헨	-10.7785
소가죽	-10.7786
check	-10.7787
버건디	-10.7791
9s	-10.7791
free	-10.7796
플러스	-10.7797
앤	-10.7797
47	-10.7798
첼시부츠	-10.7807
유니크	-10.7809
캐시미어	-10.781
간	-10.7811
short	-10.7812
▁워	-10.7815
여리핏	-10.7817
단	-10.7818
▁반소매티	-10.7818
무지	-10.7819
터치	-10.7821
헤어	-10.7823
2w	-10.7824
3홀	-10.7824
007	-10.7825
패치	-10.7826
classic	-10.7827
스모크	-10.7827
신	-10.7828
볼륨	-10.7828
컨트롤	-10.7829
컨	-10.783
핸드볼스페지알	-10.783
originals	-10.7832
qu	-10.7832
slacks	-10.7833
샥스	-10.7836
슈퍼마리오	-10.7836
조그100	-10.7836
그래픽	-10.7838
taupe	-10.7839
집	-10.7841
페스티벌	-10.7841
헬로키티	-10.7841
예약판매	-10.7841
모두의	-10.7841
상견례룩	-10.7841
토탈	-10.7842
rider	-10.7845
홀터넥	-10.7845
그런지	-10.7848
졸업식	-10.7848
토바코	-10.7848
혼	-10.7848
브러쉬	-10.7848
백트임	-10.7849
여름가디건	-10.7849
벨트	-10.785
러블리	-10.7851
패션플래닛	-10.7851
말가죽	-10.7851
여리	-10.7852
15-0	-10.7852
빅	-10.7854
메쉬	-10.7855
세미부츠컷	-10.7855
레인부츠	-10.7859
벡맨	-10.7859
촬영	-10.7859
튤립	-10.7859
멋랩	-10.7859
헤르	-10.7859
샨티	-10.7859
패턴	-10.786
세탁	-10.786
니트트랙	-10.7862
브론즈	-10.7862
▁헨리넥긴팔	-10.7862
아디스타	-10.7863
parka	-10.7865
여름슈즈	-10.7866
조거	-10.7867
조던	-10.7867
cross	-10.7868
▁kc9	-10.7868
웨이브	-10.7869
green	-10.787
민소매원피스	-10.787
중	-10.787
플립플랍	-10.787
부유방커버	-10.7872
waist	-10.7872
시즌오프	-10.7873
포스트맨	-10.7874
high	-10.7875
이탈리아	-10.7876
몬트리올	-10.7877
고어텍스	-10.7877
브루클린	-10.7878
라운드넥가디건	-10.7878
라보	-10.7879
ice	-10.788
패키지	-10.788
왈라비	-10.7881
제브잭	-10.7881
하프캡	-10.7881
슬링백	-10.7881
⭐	-10.7882
속	-10.7882
앙	-10.7882
옵	-10.7882
캄	-10.7882
하트	-10.7882
레인저	-10.7884
첼시	-10.7884
side	-10.7884
벌룬핏	-10.7884
멜란지그레이	-10.7884
여행	-10.7884
수제화	-10.7884
멜	-10.7884
경	-10.7885
스터드	-10.7886
펌프스	-10.7886
캡내장	-10.7886
에샤페	-10.7886
블랭크	-10.7886
▁19	-10.7886
슬립	-10.7886
인도어	-10.7887
엔트	-10.7887
우먼스	-10.7888
골반뽕	-10.7892
져지	-10.7893
카코트	-10.7893
돌파	-10.7894
올	-10.7894
2nd	-10.7894
주영	-10.7894
알파	-10.7895
웜	-10.7895
bi	-10.7896
목토	-10.7896
청순	-10.7896
0101	-10.7896
뉴컬러	-10.7898
봄버	-10.7898
블렌드	-10.79
캐주얼룩	-10.7902
새	-10.7902
쿨링	-10.7904
오픈	-10.7904
스쿱	-10.7905
인기	-10.7906
스파이	-10.7907
방수	-10.7908
어텀	-10.7908
허리	-10.791
렝스	-10.7911
데	-10.7913
코르	-10.7913
▁데일리러닝	-10.7915
29	-10.7915
2.0	-10.7916
ant	-10.7917
모어	-10.7917
가을신상	-10.7917
essential	-10.7918
초	-10.7918
면	-10.7918
로마	-10.7919
토프	-10.7919
대디	-10.792
bal	-10.792
호	-10.792
blk	-10.792
제니	-10.7921
셋업수트컬렉션	-10.7923
mut	-10.7926
큐	-10.7928
기본티	-10.7932
나이트	-10.7934
rough	-10.7935
하트넥	-10.7938
레이어드나시	-10.7939
로즈	-10.7943
워싱데님	-10.7948
스택	-10.7955
골	-10.7958
리얼	-10.7965
긴팔가디건	-10.7968
ot	-10.7972
부츠컷데님	-10.7972
den	-10.7983
ha	-10.7984
sh	-10.7986
니브	-10.7989
cv	-10.799
ops	-10.7991
▁dr	-10.7997
▁젤님버스	-10.8003
일웨어	-10.8003
▁fb	-10.8005
ball	-10.8009
740	-10.8018
hp	-10.8021
1000	-10.8025
833	-10.8026
트위치	-10.8028
레이어	-10.8028
카라티	-10.8036
&9	-10.8039
▁7.	-10.8054
ii	-10.8055
tier	-10.8056
▁ozsqga	-10.8057
고트	-10.8057
70s	-10.806
ng	-10.8061
8b	-10.8064
ull	-10.807
sx	-10.8083
일러	-10.8096
쉘	-10.8097
▁nj3ls	-10.8102
▁디테	-10.8103
summer	-10.8113
cha	-10.8121
트라	-10.8123
po	-10.8126
heel	-10.813
317	-10.8131
스크	-10.8145
81	-10.8148
케이	-10.8173
▁406	-10.8192
▁ti	-10.8193
570	-10.8198
▁여름슈즈	-10.8205
컨템	-10.8218
402	-10.8222
▁푸마벨라	-10.8236
to	-10.8237
7부	-10.8239
하객룩원피스	-10.8241
006	-10.8247
▁10.	-10.8252
▁vn000	-10.8254
7.5	-10.8257
ts12	-10.8258
먼	-10.8273
차	-10.8281
크리	-10.8284
▁플라	-10.8285
840	-10.8288
브이	-10.8292
봄신발	-10.8296
피티	-10.8299
▁le8	-10.8303
▁spwhg	-10.8306
356	-10.8334
.5	-10.8339
무아	-10.8341
▁밸런	-10.8347
▁와	-10.8347
▁35685a	-10.8348
▁sd2203	-10.8355
탠다드우먼즈	-10.8359
▁miww	-10.8359
10.1	-10.836
110	-10.8363
amp	-10.8363
▁ir5	-10.8367
롱부츠	-10.8368
cc	-10.8373
▁bli	-10.838
▁ld4	-10.838
062	-10.8382
over	-10.8391
렉스	-10.8392
sx13	-10.8392
레그	-10.8395
뷰	-10.8398
ive	-10.8401
ove	-10.8402
▁겨울신상	-10.8404
arch	-10.8408
pt01	-10.8414
▁편한	-10.8415
hs	-10.8415
ade	-10.8419
랙	-10.8426
웨이	-10.8433
▁1201a256-	-10.8435
▁하이킹	-10.8436
6000	-10.8436
100%	-10.8436
봄시즌	-10.8438
량	-10.844
nv	-10.8441
▁하렘	-10.8441
g4t	-10.8442
g4tc	-10.8443
ight	-10.8444
▁miwjkg	-10.8445
▁ki0	-10.8445
hee	-10.8446
▁탱크	-10.8448
여	-10.845
▁ajq	-10.8451
▁nj3ns83	-10.8451
▁nbpfgf7	-10.8453
룸	-10.8454
▁ajqsm10	-10.8454
item	-10.8455
1sx1	-10.8455
▁샌	-10.8456
▁웜업	-10.8457
▁tim	-10.8458
ette	-10.8458
▁nj3b	-10.8458
▁jp5	-10.8459
몬	-10.8459
후	-10.8459
프릴미니원피스	-10.846
fz	-10.8461
▁윈	-10.8461
▁히	-10.8461
판	-10.8461
▁맥	-10.8461
m10276	-10.8462
돔	-10.8462
플렉	-10.8463
차딜리버리	-10.8463
운	-10.8463
▁특	-10.8464
▁hpmr	-10.8465
agle	-10.8465
럴	-10.8465
▁nj4fr5	-10.8465
▁splag49u0	-10.8466
▁텍스처	-10.8466
14-01	-10.8466
▁드레	-10.8466
▁nj3ns56	-10.8466
친	-10.8466
라운	-10.8466
텀	-10.8467
▁jr5tsu	-10.8467
▁콜라	-10.8467
심볼	-10.8468
▁캠핑	-10.8468
▁상견례	-10.8468
▁슬라우치	-10.8469
웨이트	-10.8469
픈	-10.8469
▁커스텀	-10.8469
▁일상	-10.8469
▁테니	-10.8469
2%	-10.8469
▁몬테	-10.8469
uff	-10.8469
▁칼	-10.8469
▁drape	-10.8469
들	-10.8469
▁출근	-10.847
셔	-10.847
▁요트	-10.847
owg2	-10.847
▁군살	-10.847
▁dirt	-10.847
체형	-10.847
엣	-10.847
▁r26m	-10.847
단기장	-10.8471
▁생	-10.8471
▁개강	-10.8471
귤러핏	-10.8472
게	-10.8472
정규	-10.8472
릭	-10.8472
첼	-10.8473
달	-10.8473
넨셔츠	-10.8473
탁	-10.8473
상	-10.8473
광	-10.8473
텍	-10.8473
▁런닝	-10.8474
▁말	-10.8474
그래	-10.8474
▁노말	-10.8474
랜	-10.8474
쇼	-10.8474
▁overlay	-10.8474
▁긴	-10.8474
파인드	-10.8474
▁목	-10.8474
▁tb1a	-10.8474
▁재구매	-10.8474
▁발	-10.8474
랑	-10.8474
거	-10.8474
세륨	-10.8474
독	-10.8474
틴	-10.8474
ended	-10.8474
▁샌디	-10.8475
턴	-10.8475
찌	-10.8475
▁알	-10.8475
림티	-10.8475
점	-10.8475
▁셀비	-10.8475
그랑티	-10.8475
▁튤	-10.8475
럼	-10.8475
▁슬라우	-10.8475
순	-10.8475
랍	-10.8475
▁1183c	-10.8475
렐	-10.8475
078	-10.8475
컬	-10.8475
님	-10.8475
털	-10.8475
▁folde	-10.8475
▁부유방	-10.8475
▁밴	-10.8475
~290mm	-10.8476
jjg2	-10.8476
이킹	-10.8476
▁핑거	-10.8476
▁금	-10.8476
▁예약	-10.8476
▁돌	-10.8476
▁컴	-10.8476
▁엑스	-10.8476
▁39884	-10.8476
약	-10.8476
▁램스	-10.8476
▁군	-10.8476
▁논	-10.8476
배송	-10.8476
율	-10.8476
증	-10.8476
재	-10.8476
조절	-10.8476
밍	-10.8476
씬	-10.8476
킷	-10.8476
▁야	-10.8476
늘	-10.8476
맘	-10.8476
공	-10.8476
널	-10.8476
걱	-10.8476
겐	-10.8476
성인	-10.8476
송	-10.8476
압	-10.8476
▁폴로티	-10.8476
ouble	-10.8476
자바	-10.8476
편	-10.8476
mzg49	-10.8476
▁sprlg	-10.8476
계	-10.8476
뒷	-10.8476
법	-10.8476
쏠	-10.8476
graph	-10.8476
▁t32g6nfs60twt1	-10.8476
닉	-10.8476
잇	-10.8476
켈	-10.8476
fish	-10.8476
•	-10.8476
▁55~	-10.8476
▁hv81	-10.8476
▁국내	-10.8476
▁극	-10.8476
▁냉	-10.8476
▁앵	-10.8476
▁챠	-10.8476
▁펀	-10.8476
▁핫	-10.8476
玉	-10.8476
黑	-10.8476
갈	-10.8476
같	-10.8476
갭	-10.8476
과	-10.8476
굴	-10.8476
굽	-10.8476
굿	-10.8476
귄	-10.8476
근	-10.8476
깅	-10.8476
깡	-10.8476
꽃	-10.8476
꾸	-10.8476
꿈	-10.8476
끔	-10.8476
끝	-10.8476
난	-10.8476
낭	-10.8476
넓	-10.8476
넷	-10.8476
뇽	-10.8476
늄	-10.8476
늬	-10.8476
닌	-10.8476
담	-10.8476
댕	-10.8476
덤	-10.8476
델	-10.8476
뎁	-10.8476
돈	-10.8476
된	-10.8476
둥	-10.8476
드우먼	-10.8476
듯	-10.8476
따	-10.8476
또	-10.8476
뚜	-10.8476
뚝	-10.8476
뜨	-10.8476
람	-10.8476
렁	-10.8476
료	-10.8476
룬	-10.8476
맛	-10.8476
맞	-10.8476
맬	-10.8476
메트릭	-10.8476
명	-10.8476
뭉	-10.8476
므	-10.8476
벅	-10.8476
벗	-10.8476
벚	-10.8476
벼	-10.8476
벽	-10.8476
변	-10.8476
분	-10.8476
불	-10.8476
빌	-10.8476
쁨	-10.8476
샤워	-10.8476
샴	-10.8476
손	-10.8476
솜	-10.8476
승	-10.8476
십	-10.8476
썬	-10.8476
악	-10.8476
앨	-10.8476
웨딩드레스	-10.8476
익	-10.8476
잔	-10.8476
젝	-10.8476
짝	-10.8476
칸	-10.8476
킴	-10.8476
태	-10.8476
텔	-10.8476
항	-10.8476
현	-10.8476
▁팀	-10.8476
▁knot	-10.8476
넘	-10.8476
빽	-10.8476
싸	-10.8476
얇	-10.8476
▁탄	-10.8476
▁판타	-10.8476
넌	-10.8476
령	-10.8476
쏭	-10.8476
▁jr5t	-10.8476
@	-10.8476
g49g0	-10.8476
jg49	-10.8476
n401	-10.8476
▁nj1d	-10.8476
빅토리	-10.8477
트로이	-10.8477
scar	-10.8477
▁sug	-10.8477
▁rose	-10.8477
▁sugar	-10.8477
7-01	-10.8477
▁테일	-10.8477
▁무탠	-10.8477
fs2	-10.8477
ular	-10.8477
▁워시	-10.8477
▁duc	-10.8477
▁단독주문	-10.8477
스카이	-10.8477
▁coos	-10.8478
▁miwc	-10.8478
▁윈드브레이	-10.8478
▁올웨이	-10.8478
레이셔	-10.8478
rov	-10.8478
▁dear	-10.8478
~77	-10.8478
바운	-10.8478
주문	-10.8479
956	-10.8479
elet	-10.8479
▁쿨탠	-10.8479
▁남여	-10.8479
▁멜란	-10.848
▁장마	-10.848
ible	-10.8481
▁cami	-10.8481
fade	-10.8481
▁rib	-10.8481
▁메탈	-10.8481
페르	-10.8482
md	-10.8482
ffle	-10.8482
mwh	-10.8483
▁trai	-10.8483
내장	-10.8483
▁와이	-10.8483
eaker	-10.8484
▁후기인	-10.8484
▁jr5tsu8	-10.8485
레더자켓	-10.8485
▁가먼트	-10.8485
▁ya	-10.8485
▁키높이스니	-10.8485
fri	-10.8485
인원	-10.8485
▁kj0	-10.8485
▁남녀	-10.8486
셀러	-10.8486
럴핏	-10.8487
▁가젤로우프로	-10.8487
▁ech	-10.8487
▁워터	-10.8487
로프트	-10.8487
nerd	-10.8487
▁par	-10.8487
▁nbpfgf73	-10.8487
37-2	-10.8487
dis	-10.8487
▁블레이	-10.8488
946	-10.8488
▁매그	-10.8488
레이션	-10.8488
프트	-10.8488
▁브루	-10.8488
37-0	-10.8489
▁nj4	-10.849
▁벨티	-10.849
ka1	-10.849
ml	-10.849
▁프렌	-10.8491
벨로	-10.8491
▁리플	-10.8491
rma	-10.8491
▁cash	-10.8491
▁pull	-10.8491
▁스무	-10.8491
▁트렌	-10.8492
▁커브	-10.8492
▁블렌	-10.8492
916c	-10.8492
yea	-10.8492
▁r26m9	-10.8492
▁드레이	-10.8493
ello	-10.8493
▁pea	-10.8493
▁보울	-10.8493
▁클라이	-10.8494
lette	-10.8494
▁클로	-10.8494
량자켓	-10.8495
▁슬레	-10.8496
stro	-10.8496
스튜	-10.8496
rigi	-10.8497
▁trac	-10.8498
▁3567	-10.8498
▁너드	-10.8498
ign	-10.8499
보정핏	-10.8499
▁24f	-10.8501
파이어	-10.8501
디스커	-10.8502
▁세레	-10.8502
런스	-10.8502
sper	-10.8502
whi	-10.8502
zer	-10.8502
ndy	-10.8503
장바	-10.8503
▁프리미	-10.8503
▁클라	-10.8504
하이브	-10.8506
itch	-10.8507
56-0	-10.8507
드파	-10.8507
오셀	-10.8508
넬리	-10.8509
rico	-10.8509
ueb	-10.8509
랙스	-10.8509
9-01	-10.851
피쉬	-10.851
583	-10.851
스카	-10.851
▁was	-10.8511
ning	-10.8511
▁ih19	-10.8511
▁글리	-10.8511
my	-10.8512
▁플로	-10.8512
956c	-10.8513
▁브레	-10.8514
▁에코	-10.8514
852	-10.8514
▁모션	-10.8515
▁card	-10.8515
브레이	-10.8516
▁car	-10.8516
967	-10.8517
911b	-10.8517
▁그리	-10.852
enu	-10.852
▁로맨	-10.8521
▁카우	-10.8521
vy	-10.8522
avy	-10.8522
per	-10.8523
▁캐시	-10.8524
ico	-10.8525
에르	-10.8527
ram	-10.8528
ange	-10.8529
▁슬라	-10.853
제화	-10.853
▁char	-10.853
▁리사	-10.853
스원	-10.8531
터즈	-10.8531
▁r26	-10.8532
피치	-10.8532
h16	-10.8532
ura	-10.8532
422	-10.8532
▁app	-10.8533
4225	-10.8534
장자켓	-10.8535
cro	-10.8535
이어드	-10.8536
▁슬림핏후드	-10.8536
▁폴리	-10.8538
ngt	-10.8538
ood	-10.8538
622	-10.854
일리	-10.8541
▁헤리	-10.8542
che	-10.8544
인치	-10.8544
치코트	-10.8546
▁체스	-10.8546
▁jo	-10.8546
820	-10.8547
▁boa	-10.8547
297	-10.8549
▁구스	-10.8549
리노	-10.855
무스	-10.8551
228	-10.8552
디오	-10.8552
마리오	-10.8553
▁sai	-10.8554
pic	-10.8555
4600	-10.8555
467	-10.8557
리쉬	-10.8557
077	-10.8557
▁sft	-10.8558
21c	-10.856
시아	-10.8561
▁35682	-10.8561
g30	-10.8561
k6c	-10.8562
ial	-10.8562
▁오즈	-10.8564
std	-10.8565
ner	-10.8566
mat	-10.8566
페이	-10.8566
뉴포트	-10.8567
wea	-10.8572
lor	-10.8572
wpt0	-10.8573
플렉스	-10.8574
인터	-10.8575
▁4c	-10.8575
일라	-10.8575
gan	-10.8575
▁고어	-10.8579
8-001	-10.8579
▁봄신상	-10.858
632	-10.858
ic	-10.8583
617	-10.8583
▁lot	-10.8585
m35	-10.8586
▁핏업	-10.8586
▁rm	-10.8586
0t	-10.8592
less	-10.8593
▁nu	-10.8593
▁머슬핏반팔	-10.8594
oin	-10.8594
위트	-10.8594
mpk	-10.8595
▁보트	-10.8596
hh	-10.8599
▁je	-10.8601
348	-10.8602
cle	-10.8605
ong	-10.8605
od	-10.8605
g24	-10.8606
토리	-10.8607
gt	-10.8607
003	-10.8607
60g	-10.8614
▁퍼티	-10.8614
wn	-10.8621
▁tro	-10.8621
▁mod	-10.8623
▁reg	-10.8625
부티	-10.8626
cd	-10.8626
안타	-10.8627
rmo	-10.8628
록스	-10.8629
▁gra	-10.8631
tage	-10.8631
키스	-10.8633
ean	-10.8634
링원피스	-10.8636
터추천	-10.8641
▁kn	-10.8642
g38	-10.8643
▁테일러	-10.8645
mber	-10.8647
비스	-10.8649
eter	-10.8649
727	-10.8655
▁cre	-10.8658
7100	-10.866
118	-10.866
ple	-10.866
포먼	-10.8667
339	-10.8667
hr	-10.8675
ea	-10.8675
san	-10.8676
▁ih1	-10.8676
비티	-10.8676
527	-10.8678
11a	-10.8684
721	-10.8686
ree	-10.8687
시드	-10.8693
pj	-10.8694
oat	-10.8694
mbo	-10.8695
티에	-10.8699
시스	-10.8703
▁356827c	-10.8705
드로우	-10.871
▁mag	-10.8716
1j	-10.8717
sd	-10.8723
▁twi	-10.8732
les	-10.8736
mv	-10.8743
ib	-10.8754
nding	-10.8757
장화	-10.8757
▁ind	-10.8758
een	-10.8758
▁nbp7gf71	-10.876
리스트	-10.8761
터프	-10.8766
▁로미	-10.8767
10276	-10.8773
ser	-10.8774
c10	-10.8775
마리	-10.8775
935	-10.8779
▁190	-10.8784
25m	-10.8785
▁dc	-10.879
114	-10.8793
612	-10.8795
▁dd	-10.8798
이니	-10.8801
tern	-10.8806
니스	-10.8811
리넥	-10.8813
라벨	-10.8821
ren	-10.8821
인트	-10.8828
227	-10.8832
▁스토	-10.8834
▁ozsqga3	-10.8836
트인	-10.8838
▁스프	-10.8839
pdg	-10.8839
6f	-10.8839
이프	-10.8844
▁슬럽티	-10.8846
9-00	-10.8847
부티셔츠	-10.885
nal	-10.8851
alt	-10.8856
▁네	-10.8859
▁sat	-10.886
568	-10.8865
035	-10.887
y0	-10.8872
080	-10.8874
인스	-10.8874
ale	-10.8874
▁du	-10.8878
▁mel	-10.8885
kc	-10.8898
-026	-10.8905
▁:	-10.8907
839	-10.8922
ers	-10.8945
드라	-10.8954
지그	-10.8956
7cm	-10.8966
ler	-10.8973
mr	-10.8978
086	-10.8986
헤시	-10.8994
▁mu	-10.8995
8c	-10.901
제로	-10.9011
▁sco	-10.9017
클린	-10.9023
룩1위	-10.9024
o4	-10.9029
▁spe	-10.9035
ier	-10.9076
x07	-10.9093
▁스파이	-10.9097
0011	-10.9099
kg	-10.9104
h6	-10.9104
641	-10.9112
2026	-10.9114
끈나시	-10.9115
▁ballo	-10.9121
92q	-10.9124
tp	-10.9132
269	-10.9157
90s	-10.9158
▁dar	-10.9165
▁간	-10.9167
도어	-10.9172
y2	-10.9179
4w	-10.918
▁ame	-10.9202
▁헨	-10.9203
996	-10.9211
▁ja	-10.9213
&5	-10.9236
볼륨업	-10.9252
il	-10.9253
mu	-10.9258
ty	-10.9269
▁23f	-10.927
▁살	-10.9272
▁짐	-10.9273
▁예	-10.9275
▁아웃	-10.9282
▁194	-10.9283
▁언	-10.9287
s11	-10.9288
4f	-10.9291
▁sweats	-10.9291
mini	-10.9293
시오	-10.9297
nq	-10.9303
▁로고티	-10.9303
▁삭	-10.9307
4g	-10.9311
▁크리스	-10.9317
375	-10.9336
ey	-10.9341
lle	-10.9344
라이프	-10.9346
e3	-10.9354
574	-10.9357
▁브	-10.9366
▁po	-10.9371
▁bal	-10.9377
▁플레이	-10.9378
7c	-10.9399
▁뮤	-10.9401
▁pr	-10.9401
899	-10.9402
▁~	-10.9402
540	-10.9406
▁끈	-10.9409
보장	-10.9413
810	-10.9417
pt2	-10.9419
528	-10.942
ich	-10.9426
▁산	-10.9433
6s	-10.9434
db	-10.9462
▁크리	-10.9471
▁tn	-10.9472
dm	-10.9481
컨트롤5	-10.9508
wg4	-10.9509
ft	-10.9511
▁숄	-10.9522
1d	-10.9523
p53	-10.9529
▁테이	-10.9531
라타	-10.9537
▁aw	-10.9547
.5cm	-10.9554
드오	-10.9565
6e	-10.9566
m2	-10.9569
▁113	-10.9577
리스커트	-10.9579
av	-10.9586
세미와이드	-10.9601
ls	-10.9614
nly	-10.9622
미나	-10.9635
▁cord	-10.9637
83	-10.966
▁hp	-10.9686
▁홀	-10.9692
▁rou	-10.9701
▁긴소매티	-10.9719
라바	-10.9723
39cm	-10.9727
메이드	-10.9732
▁와플티	-10.9738
608	-10.9756
ound	-10.976
scollection	-10.9767
▁gf	-10.978
vers	-10.9786
파이	-10.9853
lecti	-10.9853
xf	-10.9859
16c	-10.9862
▁다	-10.9865
ddrop	-10.9872
906	-10.9875
▁kq6	-10.9902
ail	-10.9902
아울	-10.9909
7j	-10.9911
a71	-10.9933
▁str	-10.9945
키티	-10.9965
▁0	-11.0009
▁스트라이프티	-11.0011
▁슬림티	-11.0027
▁로맨틱무	-11.0036
▁tb	-11.0043
▁ze	-11.0054
und	-11.0061
260	-11.0101
10001	-11.0107
nch	-11.011
▁indi	-11.0149
프티셔츠	-11.0152
리치	-11.0152
태클렛	-11.0168
6ss	-11.0186
▁ny	-11.0233
▁그레	-11.0255
2b	-11.0262
88-00	-11.0265
ate	-11.0268
cl	-11.0273
▁벨	-11.0283
b3	-11.0301
91q	-11.031
2s	-11.0327
클래식미니	-11.0327
▁bi	-11.0336
▁grap	-11.0388
▁90	-11.0393
2q	-11.0398
파드	-11.0422
▁여름티	-11.0435
▁스퀘어	-11.0458
▁스니	-11.0461
gf	-11.0487
▁ap	-11.0493
4.	-11.0495
가죽구두	-11.0509
숄더	-11.057
▁스피드	-11.0581
▁후기	-11.0613
로하	-11.0626
e8	-11.0646
ason	-11.0648
▁릴	-11.0707
5u	-11.0707
▁문	-11.0722
▁한	-11.0724
746	-11.0726
▁tx	-11.0745
▁방	-11.0762
▁ke	-11.0775
▁hs	-11.0808
트팬츠	-11.0809
▁넬	-11.0832
셔츠원피스	-11.0885
mud	-11.0923
▁wb	-11.0939
▁머	-11.0948
xc	-11.0955
▁맨	-11.0959
▁2.	-11.099
▁헨리넥티	-11.0999
3t	-11.1014
846	-11.1014
719	-11.105
▁레이어드룩	-11.1105
▁ks4	-11.1158
▁32	-11.1168
▁30	-11.1169
bb	-11.1212
▁ml	-11.1222
t11	-11.1226
646	-11.123
109	-11.1232
alf	-11.1356
3.	-11.1385
슈퍼스타부츠	-11.1494
306	-11.1524
▁har	-11.1607
정장팬츠	-11.1671
리비	-11.178
라이더자켓	-11.1797
보라	-11.1801
693	-11.1833
▁탈	-11.1845
999	-11.1857
▁아르	-11.2035
▁2618	-11.206
▁조	-11.2078
▁멀	-11.2123
▁크롭티	-11.2146
01-2	-11.2165
ym	-11.2182
tcore	-11.2271
1bk	-11.2306
▁롱슬리브티	-11.231
▁lon	-11.235
dg	-11.2396
1864	-11.2444
si	-11.2458
410	-11.2477
hg911	-11.2624
-200	-11.2661
▁ch	-11.268
백포	-11.2718
2-	-11.2801
oc	-11.2855
104	-11.2908
ni	-11.2934
272	-11.294
▁ld89	-11.2956
▁l4	-11.3101
c1	-11.3137
ger	-11.3161
00	-11.3222
4b	-11.3285
▁bk	-11.3321
▁셀	-11.3357
▁&	-11.3373
▁ne	-11.3399
ap	-11.3407
▁zi	-11.3465
506	-11.35
ell	-11.35
7-0	-11.3526
▁스테	-11.3586
sta	-11.3625
▁18	-11.3669
gar	-11.3714
tj	-11.3796
▁ra	-11.38
225	-11.388
▁패	-11.396
-600	-11.403
quar	-11.4048
▁밀리	-11.4185
umper	-11.4185
라미	-11.42
tle	-11.4213
266	-11.4213
▁le	-11.4281
267	-11.4352
러플	-11.4372
▁나이	-11.4433
▁수	-11.4459
965	-11.4567
5s	-11.4631
▁nbpdgf7	-11.4674
▁케이	-11.4722
▁mdp	-11.4902
pi	-11.5072
▁36	-11.508
▁토	-11.5259
▁핀	-11.531
▁젠	-11.554
즈드	-11.5607
울코트	-11.5759
147	-11.5869
3-1	-11.6006
3bk	-11.607
이션	-11.6164
tur	-11.6286
ai	-11.6287
302	-11.6313
이스	-11.6678
▁너	-11.6686
▁디스	-11.6762
989	-11.6801
▁치	-11.6849
티셔츠추천	-11.6925
▁wa	-11.7026
▁복	-11.706
em	-11.7231
ster	-11.7234
1s	-11.7305
▁러닝화	-11.7339
▁23	-11.736
eb	-11.802
2-1	-11.8318
-4	-11.8475
k2	-11.8882
▁sm	-11.9088
▁마리	-11.9186
gr	-11.9314
874	-11.936
테이	-11.9527
ered	-11.9582
▁te	-11.9597
9x	-11.9626
02a	-11.9631
690	-11.9726
▁장	-11.9739
hj	-11.9853
올렛	-11.986
955	-11.9976
865	-11.9987
레임	-12.0123
▁pa	-12.014
▁우	-12.0159
64	-12.0541
ent	-12.0869
001-	-12.1107
▁80	-12.1126
-10	-12.1145
bm	-12.1318
로프	-12.1507
롱스커트	-12.1585
▁1000	-12.1602
▁mas	-12.1664
4수	-12.1671
▁miwhwg9	-12.1783
▁lin	-12.1814
흠	-12.1818
휘	-12.1819
펙	-12.182
펄	-12.1821
탕	-12.1822
탐	-12.1823
징	-12.1824
즘	-12.1825
즐	-12.1826
젯	-12.1827
잡	-12.1828
윤	-12.1829
웬	-12.183
옴	-12.1831
역	-12.1832
앰	-12.1833
슐	-12.1834
뽀	-12.1835
뻑	-12.1836
병	-12.1837
멘	-12.1838
력	-12.1839
듈	-12.184
덴	-12.1841
덕	-12.1842
닐	-12.1843
녕	-12.1844
념	-12.1845
날	-12.1846
끼	-12.1847
흑	-12.1848
휩	-12.1849
향	-12.185
핫	-12.1851
학	-12.1852
풋	-12.1853
펀	-12.1854
취	-12.1855
촬	-12.1856
챠	-12.1857
줌	-12.1858
졸	-12.1859
왁	-12.186
얄	-12.1861
얀	-12.1862
씨	-12.1863
샨	-12.1864
빵	-12.1865
빠	-12.1866
붓	-12.1867
봉	-12.1868
몸	-12.1869
멋	-12.187
렘	-12.1871
냉	-12.1872
깜	-12.1873
흰	-12.1874
휠	-12.1875
튤	-12.1876
칭	-12.1877
찬	-12.1878
죠	-12.1879
왈	-12.188
엠	-12.1881
앵	-12.1882
섹	-12.1883
범	-12.1884
밋	-12.1885
례	-12.1886
렝	-12.1887
▁wt	-12.1887
규	-12.1888
견	-12.1889
퓨	-12.189
특	-12.1891
탱	-12.1892
쪼	-12.1893
접	-12.1894
액	-12.1895
써	-12.1896
밸	-12.1897
급	-12.1898
극	-12.1899
©	-12.19
힙	-12.1901
톰	-12.1902
찰	-12.1903
옐	-12.1904
뽕	-12.1905
국	-12.1906
훌	-12.1907
펌	-12.1908
팀	-12.1909
쿼	-12.191
엑	-12.1911
벳	-12.1912
몰	-12.1913
목	-12.1914
멕	-12.1915
딜	-12.1916
덜	-12.1917
닛	-12.1918
논	-12.1919
김	-12.192
캠	-12.1921
요	-12.1922
옹	-12.1923
믹	-12.1924
누	-12.1925
헬	-12.1926
윌	-12.1927
웃	-12.1928
년	-12.1929
희	-12.193
행	-12.1931
칼	-12.1932
착	-12.1933
랭	-12.1934
돌	-12.1935
금	-12.1936
허	-12.1937
펜	-12.1938
샥	-12.1939
생	-12.194
벡	-12.1941
쿱	-12.1942
쿄	-12.1943
캔	-12.1944
윙	-12.1945
럭	-12.1946
등	-12.1947
닥	-12.1948
폭	-12.1949
탄	-12.195
잉	-12.1951
막	-12.1952
귤	-12.1953
획	-12.1954
척	-12.1955
쫀	-12.1956
삼	-12.1957
륨	-12.1958
당	-12.1959
핸	-12.196
필	-12.1961
겨	-12.1962
컴	-12.1963
잭	-12.1964
옥	-12.1965
728	-12.1965
냅	-12.1966
캡	-12.1967
군	-12.1968
격	-12.1969
램	-12.197
능	-12.1971
연	-12.1972
말	-12.1973
킹	-12.1974
높	-12.1975
풀	-12.1976
퀘	-12.1977
푸	-12.1978
폼	-12.1979
캣	-12.198
텐	-12.1981
샌	-12.1982
랫	-12.1983
핑	-12.1984
알	-12.1985
뷔	-12.1986
딥	-12.1987
야	-12.1988
넨	-12.1989
윈	-12.199
▁best	-12.199
썸	-12.1991
벌	-12.1992
맥	-12.1993
캉	-12.1994
작	-12.1995
볼	-12.1996
휴	-12.1997
웻	-12.1998
동	-12.1999
히	-12.2
청	-12.2001
민	-12.2002
두	-12.2003
죽	-12.2004
탠	-12.2005
엄	-12.2006
배	-12.2007
폴	-12.2008
헤	-12.2009
캐	-12.201
%	-12.2011
숏	-12.2012
싱	-12.2013
셜	-12.2014
출	-12.2015
투	-12.2016
절	-12.2017
센	-12.2018
콜	-12.2019
밴	-12.202
발	-12.2021
렉	-12.2022
림	-12.2023
식	-12.2024
름	-12.2025
슈	-12.2026
래	-12.2027
롭	-12.2028
남	-12.2029
성	-12.203
객	-12.2031
긴	-12.2032
클	-12.2033
을	-12.2034
워	-12.2035
▁fra	-12.2035
웨	-12.2036
와	-12.2037
켓	-12.2038
자	-12.2039
화추천	-12.2039
